#version: 0.2 - Trained by `huggingface/tokenizers`
Ġ D
a r
e n
Ġ S
a l
a k
ak ar
en e
ĠD akar
g al
ĠS ene
ĠSene gal
u e
t e
Ġ N
Ġ A
o u
Ġ R
Ġ C
e r
Ġ L
Ġ E
Ġ M
l e
Ġ P
a n
ĠD e
Ġ F
i n
Ġ 1
l a
r e
Ġ B
i s
Ġ V
e u
ĠR ue
i l
Ġ 2
o n
o r
c e
Ġ G
i e
en t
i te
a m
il la
Ġ I
Ġ X
Ġ 3
ĠV illa
i c
v en
ven ue
s e
ou te
m m
o t
Ġ T
m ent
a g
ĠC o
i b
ĠF a
y e
a p
ĠD i
a c
an n
D akar
1 0
ĠA venue
b le
Ġ H
1 2
1 5
eu ble
mm euble
a u
a d
1 3
1 4
Ġ 4
o p
s s
ĠB ou
1 8
1 6
Ġ 6
i re
1 9
1 7
2 2
Ġ K
a t
eu r
3 0
ie s
is se
i on
l m
ib er
ĠI mmeuble
Ġ 5
isse ment
l le
f f
q ue
2 4
2 0
ot issement
ĠR oute
2 7
ic ap
ag e
ĠE t
in t
2 5
ar d
iber te
s t
i d
ĠC ite
2 9
2 8
2 6
ĠD u
ĠL a
o ff
b a
Y off
3 3
R ue
Ġ O
le v
in e
h e
lev ard
ac re
C ite
an d
ĠP la
2 3
ĠFa ce
ĠM ar
e s
ĠP o
u ar
ĠF o
Ġ U
ĠEt age
ĠL otissement
Ġ Yoff
ĠFo ire
ĠBou levard
ĠL iberte
er m
e l
e d
m e
ĠE x
te au
ĠCo eur
ĠPla teau
ĠF ann
i t
o z
Ġ 9
erm oz
n e
i er
an e
ĠE n
S icap
ĠG ue
en s
is te
Ġ J
Ġ 0
r o
Ġ1 0
i k
Ġ 7
i r
ĠEx t
Ġ 8
ĠPo int
d n
is que
re s
g u
u f
ĠDi op
ĠDe s
uf isque
ĠA m
ĠM ermoz
ĠA ss
r and
ue st
on e
ĠMar iste
ĠS acre
or t
ens ion
lle s
R oute
u r
c h
ĠExt ension
K m
p p
i a
A venue
ĠR ufisque
ĠM ba
ĠT h
g or
q uar
quar e
lm ad
Ġ Z
o l
lmad ies
ĠV dn
a in
ĠE me
0 0
ou r
5 5
ar ce
in a
4 7
ĠG rand
6 8
4 0
1 1
4 8
6 5
3 8
ĠA n
ĠC ent
4 9
3 9
6 7
3 7
4 5
ĠS icap
i que
en ce
6 0
6 9
a ire
t a
ĠH ann
ĠM ed
3 5
ĠBou r
ĠMariste s
ain ies
ĠAss ainies
ĠS o
arce lles
S acre
ĠGue ye
ĠL e
ĠN gor
id ence
ĠN d
ĠO uest
al l
ĠA lmadies
7 8
op ort
or d
a s
er oport
n d
es idence
pp ar
t ier
it ie
8 5
ĠA ppar
7 9
te ment
ĠU r
o ye
at ion
3 4
7 0
o b
7 5
a ss
2 1
3 6
ĠZ one
g e
on t
ĠAppar tement
H ann
ĠCo mm
ib a
9 9
ĠL am
u ak
uak am
ĠK eur
4 4
ch n
a o
6 6
ĠP y
er r
i m
H lm
5 0
ĠA eroport
ĠB is
ĠA ir
Q uar
8 0
ĠM al
ik ine
ĠLam ine
Quar tier
gu iba
8 9
ĠMed ina
ĠR esidence
ĠAm itie
en aire
ĠC he
u d
ĠPy ro
te chn
ĠU n
ĠMba ye
ĠCent enaire
3 2
ĠPyro techn
L iberte
ĠBour guiba
ĠUr b
5 9
7 7
ĠH lm
m p
ic k
ĠS quare
c at
ĠI nd
ĠP e
3 1
i x
ik h
o c
a ye
ĠI i
4 6
L otissement
ĠM b
ic he
ĠD j
ĠS y
ĠChe ikh
ĠN ord
ĠS a
s se
8 8
ĠR e
ĠUrb am
9 0
Ġ1 5
I mmeuble
is e
r al
ĠP res
ĠO uakam
d ia
u le
ĠE r
ĠX e
am e
ĠUn ite
on d
o int
ĠB el
c he
u ne
ĠS t
il y
ad ou
ĠS ud
an ce
ĠSa int
6 4
ĠMal ick
S quare
b er
5 8
eu l
Ġ2 0
ĠDj ily
ĠC ar
ĠM ou
Ġ1 1
Ġ1 4
el ix
Ġ1 3
ĠP ikine
ad e
b e
ĠF elix
c i
ĠComm une
ĠCo l
ĠL ou
o m
g h
Ġ1 2
ĠAn ta
u t
P arcelles
5 7
ĠM o
ĠMba o
i ce
id a
gh or
ĠF r
ob ane
ĠDi ou
9 8
i ar
P oint
r ie
9 7
d ida
ĠC ur
d ou
i p
u re
ĠP ar
ĠTh ies
B ou
ĠPyrotechn ie
ag ne
4 3
ĠFa ss
in g
ier e
ĠS e
ĠS en
Bou levard
en d
ĠA l
Ġ1 8
O uest
or n
ĠNd oye
ĠDiou f
al e
orn iche
u m
u st
h er
w aye
V illa
ĠP arcelles
6 3
9 5
ĠCar n
ĠJ e
ĠSen ghor
ĠCarn ot
dia waye
ĠT all
ĠCo te
ia ye
ĠS al
ĠDi agne
ĠMb our
ĠA b
ĠInd ust
ĠIndust rie
ol d
8 7
la ise
ĠAm adou
ĠK m
ĠB laise
Ġ Y
ĠCol obane
ap e
r a
Ġ1 7
ĠP ont
err iere
6 2
Z one
te l
ĠM ass
i g
p e
4 2
4 1
iar oye
eu pp
eupp eul
ĠLou is
ĠMou sse
ĠPla ce
gu i
ol f
S cat
ĠSo dida
Ġ Quartier
c k
Ġ1 6
ĠE l
ĠPont y
ĠC am
ĠC orniche
a ce
ĠD erriere
u il
ĠC a
er o
ĠT ape
er s
at te
ĠTape e
u b
ĠT ou
6 1
Ġ -
ĠAss ane
ĠIndustrie lle
v in
ĠM ame
ĠN um
Ġ2 2
ĠK ao
ĠG or
ĠPe y
u s
ta vin
ĠA ut
ĠK h
ĠLe op
an g
ĠT er
ĠGue diawaye
M ermoz
ĠPey tavin
ĠLeop old
Ġ W
ĠG au
ĠNum ero
ĠS ed
ĠGor gui
ĠDi euppeul
e p
ĠP ro
an t
ĠG e
or oute
uil d
Ġ3 0
ub l
C ent
la ck
ĠFa ure
ip res
ĠJe an
ĠF all
end ance
o le
il l
her be
ĠS cat
ĠPo mp
ĠTh iaroye
ĠKao lack
ĠFa id
Ġ1 9
ĠFaid herbe
ĠGue ule
ĠTer re
ubl ique
i v
ĠG al
5 6
h am
ĠIi i
n a
ĠE c
id ou
and ou
Ġ4 0
ĠRe p
ep endance
ĠE s
ĠDi am
ĠO ie
te ur
ĠSed ar
g le
ba b
ĠPomp idou
ĠRep ublique
er k
A lmadies
on a
ĠAut oroute
ĠF err
0 8
ic o
ĠAb dou
ĠMass ar
erk le
5 4
9 4
N gor
ĠC ap
in c
b o
i o
ĠR p
k h
st or
7 3
ar ou
ĠB uild
ĠV inc
Ġ2 5
7 6
ĠA z
ĠR ond
ĠM er
ĠH o
Ġ2 9
ĠFr ont
g i
ĠTall y
7 4
ĠA r
ĠG ene
ĠCo m
ac k
ĠSt ation
ĠG olf
5 1
o se
ĠGene ral
c s
l on
ĠS er
Ġ2 6
ĠCom ico
5 3
i f
ĠSe y
8 3
ĠAn gle
ĠPro lon
ĠProlon ge
Ġ2 4
it al
ham ed
7 1
10 0
ĠInd ependance
ĠBour gi
ber ene
8 6
ir age
5 2
9 3
9 6
i ou
r ac
ĠJ ule
G rand
ĠN g
p i
ĠJule s
8 4
V dn
is t
ber t
ĠSal y
ĠS ipres
ĠGe or
b el
ĠL es
ĠE bo
ĠV irage
ĠFerr y
ĠEbo ue
en ne
ĠA lle
id ent
ci al
i le
ĠN iaye
Ġ2 3
N ord
g es
ĠI mp
12 0
15 0
14 0
ĠE st
a b
Ġ2 1
ĠCent re
ĠComm er
ĠMame lles
ĠGal andou
ĠProlonge e
f r
an al
18 0
ĠPyrotechn ique
i gu
ĠN ation
13 0
E n
u n
am ba
19 0
ĠPres ident
ĠNiaye s
Cent re
t re
ĠB r
ot rac
ĠGeor ges
K eur
ĠP a
16 0
ĠAz ur
ĠL o
in ch
17 0
inch or
8 2
ĠD erkle
ĠK ar
ĠTou ba
stor s
igu inchor
h ar
ĠB at
30 0
7 2
er t
ĠVinc ens
d e
9 2
a ine
ĠZ iguinchor
1 15
1 14
ĠA d
Ġ2 7
ice s
P ikine
ad j
op ital
ĠPar k
D i
ĠP atte
ĠJ au
ĠMo hamed
pe cs
ĠGau lle
ak h
ĠR a
ao bab
pecs y
8 1
9 1
R ond
n es
Ġ5 0
ĠS an
O uakam
ou m
ĠM iche
ĠB aobab
26 0
ĠMiche l
i en
i ment
ĠP ort
20 0
1 10
l in
ĠM a
ĠM e
1 17
ĠV i
1 12
1 13
3 28
i me
ĠS ar
te r
ĠA v
1 18
24 0
29 0
arce lle
ĠCommer cial
2 12
3 25
ĠA fr
ad io
22 0
oc ade
ona tel
1 19
3 13
P la
ĠS onatel
ĠA pecsy
er ie
Ġ2 8
15 2
27 0
our bel
om aine
ĠEs c
ĠEc ole
ĠJau res
1 16
ĠC anal
ĠNd iaye
p h
r im
ĠW ag
3 10
s que
ĠDi ourbel
ĠMed ine
ĠCam p
ĠBat iment
2 16
n i
ar e
ĠC h
ĠDi al
ĠBuild ers
2 14
3 20
z e
Ġ0 1
3 12
3 19
R esidence
a i
g a
sque e
2 18
2 30
3 15
3 18
Q u
25 0
ĠCam berene
ĠWag ane
2 10
2 13
2 17
3 14
3 24
3 29
o re
or te
ĠNation ale
2 15
2 19
3 16
3 17
3 22
3 30
28 0
Ġ0 3
ĠTh ion
ĠMo squee
3 27
3 26
ag u
ĠAlle es
R ufisque
l l
ĠS ur
ĠP orte
am o
Ġ4 5
ĠMar che
ĠThion g
2 33
ni adio
h m
am a
ĠI s
12 8
Ġ0 6
ĠCa stors
al if
ĠN i
am b
ĠH adj
id ien
ĠB ir
ĠT he
Ġ0 2
ĠT ol
our ou
as se
ĠKar im
ĠL iber
ĠP arcelle
10 6
ĠA u
ĠP as
ĠH ass
3 23
ĠD k
ĠD arou
ĠE au
Ġ3 3
10 9
15 5
17 8
o ile
ĠD am
is s
10 5
ob ert
g o
ĠS and
14 9
ĠJ ose
ĠMer idien
ĠSar r
ĠJose ph
c t
d i
ĠG om
ĠPas teur
ĠR obert
ĠC ices
Ġ3 1
ĠFa t
13 5
13 9
ĠPo l
oc k
ĠSt ade
ĠSey dou
Qu ai
G ue
t age
v e
ĠD omaine
ic t
14 5
17 9
ĠPe che
p ace
ĠN ourou
ĠP har
10 8
ĠH ock
12 9
Ġ0 4
ĠGom is
m ac
15 9
ĠCap tage
lin ique
F ann
P atte
ar a
la ye
ĠB amba
Ġ3 4
Ġ3 7
17 5
26 9
ĠLou ga
ĠPa ill
ĠG ou
12 5
ĠK ing
23 8
mac ie
Ġ3 8
ag o
13 8
ĠHo tel
ĠHass an
M ed
b i
10 4
12 7
14 8
16 7
27 8
25 5
29 8
ci enne
ĠRa ff
m b
ĠB an
15 8
13 7
ba ss
ĠPhar macie
c d
t te
ap pe
10 7
op rim
18 5
ĠPar ch
ĠR o
at t
lm as
27 9
28 9
ore e
ĠParch appe
y a
ĠT e
18 9
16 5
16 8
16 9
Ġ6 0
19 9
24 9
20 9
ĠEt oile
33 5
Ġ7 0
ig ne
ĠS otrac
ĠM ag
ĠB i
Ġ3 5
15 7
18 7
22 8
Ġ0 5
ĠPol ice
ĠC ad
ĠP iste
il le
se c
19 8
20 8
33 8
Pla ce
ene l
ĠB l
ot s
au l
22 5
20 5
29 5
23 9
ĠMar ina
ro ise
ĠCent ral
ist r
e t
t ar
ĠFa d
ĠH u
12 6
14 7
18 8
Ġ6 7
24 5
29 9
23 5
Med ina
ĠMarina s
b ou
12 4
22 9
30 8
30 9
24 8
25 9
Ġ0 8
ĠMo le
ĠAl bert
ĠRaff enel
o g
19 5
30 5
26 8
23 7
S o
g n
ĠC pi
ĠB ar
ĠV ict
22 7
25 8
28 5
33 7
ĠSal am
ĠBir ago
ĠHu go
Ġ3 2
Ġ3 9
ib ral
ĠH y
19 7
ĠK e
27 5
ĠFr ance
ĠThe ze
bi ac
T h
ĠC as
ĠG are
ent ion
Ġ3 6
13 4
14 4
Ġ4 4
28 8
26 5
26 7
ĠJe t
sec na
ĠVict or
G olf
ĠC ard
ĠH uar
15 6
18 6
17 7
30 7
20 7
ĠLa y
kh na
ibral tar
ĠHuar t
c ot
ĠD r
ĠS he
14 6
27 7
25 7
29 7
ĠExt ention
F ace
ĠA hm
ĠA secna
Ġ4 2
24 7
Ġ0 7
00 0
ĠAn cienne
alif ort
ĠFa h
28 7
Ġ10 0
So dida
ĠG r
ĠFa dia
au t
25 6
ĠSo khna
ĠTol biac
ĠDk r
ĠDam el
ĠFat ick
ĠAhm adou
a f
ou nd
ĠR ou
ĠL ib
Ġ4 3
22 4
ĠGau che
ou l
ĠG u
ie ge
13 6
17 4
17 6
Ġ5 4
ĠCad res
o te
ĠD oc
ĠC p
15 4
Ġ4 7
22 6
roise ment
18 4
16 4
19 6
ĠKe be
ĠShe ll
ĠFah d
ĠDoc teur
ĠS oprim
ĠB ce
au r
16 6
Ġ5 6
Ġ5 8
33 4
ĠPla ge
ĠSer v
ĠAfr ique
ĠLiber ation
i ation
er e
ĠI n
ap h
10 3
Ġ4 1
Ġ0 152
ig a
Di am
ĠBce ao
A m
o kh
s te
al aye
ĠR d
ĠP al
ĠI v
30 6
24 6
20 4
25 4
ĠJ eu
Ġ0 9
Ġ8 6
ĠAv iation
ĠCh au
ĠSarr aut
s ine
al la
ĠL ut
ĠM ill
ĠP aul
10 2
ĠH opital
Ġ6 2
Ġ6 4
30 4
20 6
29 6
28 6
ĠMar t
ĠDiam niadio
ĠHadj i
C am
d re
re d
ag a
ag ou
Ġ6 5
19 4
28 4
33 6
and e
ĠRe z
ĠIs ra
ĠChau sse
ĠD an
in d
Ġ5 7
24 4
27 4
26 4
23 6
me tte
ĠSo w
ĠFr an
ĠEs pace
ĠSer igne
Gue diawaye
ĠJeu nes
ĠLut her
l ie
ĠD a
ĠD ro
ĠS am
ĠP er
ĠVilla ge
27 6
29 4
ĠEn tre
ĠBuild ing
ĠChausse e
in te
Ġ5 5
26 6
23 4
ĠAn dre
ĠSo m
tier e
istr at
ĠServ ice
lie ue
en al
al y
ou ve
ol obane
Ġ Quai
ĠD ou
ĠR ocade
ir a
ure au
ĠDomaine s
ĠB a
ĠB c
Ġ4 6
op p
Ġ6 8
im z
ĠMb ack
ig n
iou ne
ĠImp ots
gn y
F ass
a it
te c
Ġ1 85
ce an
Ġ4 8
Ġ6 6
Ġ7 5
ĠAm bass
one pi
Cent ral
agu i
ĠBi agui
ĠCard e
Am itie
ĠRd c
ĠMart in
ĠDro ite
ene tre
ĠB e
ĠV o
ĠX c
ac ar
ĠDu nes
ĠMar ch
ĠMill ion
H opital
S otrac
m ble
o ire
u agou
ar f
ĠS u
ĠA sse
Ġ5 9
ĠLa eroport
ĠO cean
ĠLe bou
ĠPe t
ound a
ĠMback e
g ence
Ġ1 10
12 3
ĠEn f
ĠAbdou laye
ĠEsc arf
A lle
H amo
R ocade
c a
c l
ĠD alifort
ĠN imz
ĠE m
13 3
ĠPo ste
Ġ9 9
im a
amb ac
ĠBan lieue
ĠBl oc
C a
M ame
ĠN o
ĠA p
Ġ5 2
Ġ9 0
our t
ĠFad iga
ĠEscarf ait
d ro
k am
n aire
t h
u l
ĠDe lmas
au d
id e
Ġ8 4
ud al
iv ers
ĠImp asse
ĠSan te
Th iaroye
ambac ounda
C olobane
r an
ĠM z
ĠM at
le ur
Ġ8 0
ĠCol bert
ĠLo in
cot af
ĠPer es
C orniche
ĠS onepi
ĠC al
ĠC es
or o
ĠDi okh
Ġ9 7
Ġ7 3
Ġ7 7
ra f
ĠHo lle
ĠPaill ote
mble e
Mame lles
x e
re t
ĠI cotaf
ĠT ambacounda
ĠJ o
11 1
ĠDiam alaye
ĠDan tec
ĠMarch and
ĠDiokh ane
g ion
ĠS ou
ou p
ĠP d
ĠP enal
ĠDe g
12 1
14 3
and ar
Ġ9 6
ĠPort udal
ĠEsc ale
ĠAsse mblee
raf at
S ipres
c o
ĠS de
gal kam
ĠC ime
ĠB er
15 3
ĠHy dro
Cam berene
ĠCes aire
M ar
S aly
i z
ar s
ĠA ime
ĠF leur
ic a
ic h
ĠH amo
ir ie
ĠKh ad
mb eul
p oint
r aph
ar c
ĠL y
le c
ĠP r
16 3
Ġ6 1
ĠTh i
ĠBaobab s
ĠMillion naire
c ar
m in
ĠC it
eu mbeul
ĠI b
ba o
oc he
ivers ite
raph ique
l and
m a
v el
ĠC roisement
ĠT f
ct ion
ĠCal mette
ĠFleur us
ĠC linique
ĠDe l
in ier
ĠCo lle
ap arou
ĠDi or
13 1
18 3
Ġ5 1
Ġ8 5
old a
ĠAr ist
ĠSand inier
ĠBc cd
ĠPd t
ĠArist ide
S t
ĠN on
ĠM an
10 1
ad a
13 2
17 3
ĠAm p
ĠMal an
ĠKh andar
un ic
ĠBr un
ĠAd min
ĠSan galkam
og raphique
ĠIb ra
ĠSandinier y
0 1
A n
ĠD oree
en i
ĠR ame
ĠM unic
ĠB ureau
ĠK a
ĠTh ann
mp le
ĠIndustrie l
ĠTou nd
ĠBar gny
ĠLay enne
ĠLebou s
ĠRame z
c al
e me
i oche
ĠR ose
ĠC on
ĠL ob
ĠK olda
Ġ10 4
ĠRe gion
ĠBr ioche
ĠSand aga
ĠMunic ip
A eroport
f red
j a
l y
t on
ĠA bab
ĠG oree
am il
14 1
29 3
Ġ10 7
ond e
ĠGe ographique
Di euppeul
agu ene
ĠAbab acar
c ine
l ot
r y
ar m
ĠN ot
ĠM on
ĠV ers
on ghor
ĠH ac
15 1
Ġ4 9
ĠBou l
ĠBou m
19 3
20 3
ĠMa irie
di h
ĠGou x
ĠEnf ace
C linique
E s
T ou
b u
d a
en a
ĠB o
ĠV ille
or me
ĠG ibraltar
am ou
ĠT ot
Ġ6 3
Ġ7 6
Ġ8 9
ĠZ ac
ĠAl fred
ĠEm ile
ĠHydro car
U n
ĠS dih
ĠR ane
er ies
ĠM ande
re f
ĠB opp
ot te
12 2
22 3
ĠK le
30 3
Ġ5 3
24 3
27 3
25 3
28 3
Ġ9 4
Ġ10 2
as land
ĠGr asland
ĠAp res
mple xe
bu res
ĠMande la
S iege
ĠD o
ĠS or
ĠC cd
ĠP h
ĠT onghor
33 3
ĠU sine
it h
Ġ9 8
Ġ7 4
Ġ8 7
65 3
ĠAppar t
iar y
ĠVinc ent
ĠNg aparou
ĠAlle e
ĠPaill otte
Diam niadio
ouve au
ĠVo ies
ĠKhad im
ĠRegion al
ly mp
ĠTot al
m ane
v is
z a
ou t
ĠR ot
an k
Ġ1 25
ad i
18 1
Ġ7 2
ĠLe o
ter n
ĠAv ion
ĠMunicip al
ĠHydrocar bures
0 2
G ibraltar
o s
ĠM ix
Ġ1 15
ĠB en
ĠT err
Ġ6 9
26 3
ĠO us
ĠO lymp
ine t
Ġ9 5
Ġ10 5
ik a
55 8
65 8
ĠPar ent
ant s
ĠAd ja
ĠSu p
ĠNimz att
ĠDel orme
ĠColle ge
ĠBoum ack
ĠKle ber
0 7
O uagou
a ou
ĠS c
ĠM ourt
ĠF ro
ĠG end
Ġ7 1
Ġ7 9
37 3
end a
ĠAl ioune
ĠFran che
ĠRot onde
ĠMix ta
ĠOus mane
ĠGend arm
0 4
C it
M ole
b s
d ina
ĠA rafat
ĠL im
in oum
ĠI lot
17 2
eur s
ĠMar ine
00 2
ĠCa se
ĠAmbass ade
Ca stors
ĠOlymp ique
ĠGendarm erie
ĠLim amou
S ud
Ġ Q
en g
ĠS g
te le
ĠA e
ac h
16 2
20 1
33 2
erm es
ain s
47 1
ĠGrand e
60 6
ĠUrb an
ang er
iv aou
ĠAr t
ĠNi ang
ĠPet it
ĠNot aire
ref our
vis oire
ĠFro b
0 6
C ices
a y
r iv
ĠS age
ĠS iege
ĠC en
ĠC la
er c
ĠF er
Ġ1 45
ĠV er
ĠI mm
ac r
ad y
19 1
22 1
25 2
ĠLa ye
48 6
67 4
ob ank
ĠY alla
ang erie
ĠAfr ica
Alle es
vel t
ĠTound oup
ĠBoul angerie
ĠTerr ain
ĠMourt ada
riv ains
0 3
D arou
E x
F enetre
M b
s on
ĠA t
ĠA inoum
ĠB ene
am itie
ĠH ermes
14 2
19 2
22 2
Ġ7 8
Ġ8 8
55 5
68 4
40 4
65 1
49 2
45 9
all o
ci ale
iv e
ĠEc obank
ĠEc rivains
ĠAdmin istrat
Tou ba
C o
i an
i enda
ĠA gence
ĠE amitie
ĠM age
ĠDe m
in o
ĠB aye
Ġ2 21
ĠFa y
au x
18 2
at h
st aur
33 9
ĠO u
23 1
ĠMar ie
ĠFann point
47 4
68 3
65 0
45 4
60 1
60 2
35 0
ĠSo cial
ĠMou hamed
ĠPar c
ĠSey dina
ĠRou tiere
ĠBer anger
ĠIbra h
ĠSg bs
ĠSage f
staur ant
a ba
ĠS ia
ĠN el
ĠL at
ĠM aur
ĠP ap
ac o
17 1
23 2
55 4
68 6
48 5
65 7
49 6
39 9
60 3
60 8
34 3
36 4
ĠDj amil
ĠRe staurant
ĠSey di
ĠBr ass
ĠMag istrat
ĠSam u
ĠDeg au
eni us
ĠHac ienda
ĠAe lmas
visoire ment
ĠAdministrat if
ĠNel son
l o
ar akh
ĠR ya
ĠL ap
ĠL ind
ĠM in
ĠP re
in ci
27 1
33 1
ĠPla za
ier s
Ġ10 6
Ġ10 8
47 0
47 6
47 7
65 4
38 3
39 5
39 6
37 0
69 0
ĠMed ic
ĠEl y
ĠEl ton
ĠDiam aguene
ĠKar ack
iss ance
ĠJo al
ĠCime tiere
ĠPr inci
ĠLob att
ena issance
ĠCen ter
ĠBrass eries
ĠPrinci p
B uild
D erkle
d o
p eul
ĠS ot
ĠR enaissance
ĠE le
Ġ1 50
is me
is cine
eu peul
ĠG o
ĠI eme
ĠT ivaou
16 1
30 1
30 2
24 1
28 2
26 2
ĠMar s
55 9
47 5
68 0
68 7
68 8
40 2
40 6
40 8
48 4
48 8
65 6
49 0
49 1
39 4
39 7
67 0
35 9
75 0
75 4
ĠUn iversite
97 6
ose velt
ĠRo osevelt
Ġ185 24
Mar iste
Es pace
ĠFrob enius
Build ing
P lles
Z ac
i i
ĠN iary
ĠC our
ĠC bao
Ġ1 20
ĠB u
ĠDi ar
29 2
ĠMar i
it aire
00 5
47 2
47 3
68 2
40 3
40 5
40 7
40 9
48 7
38 2
67 3
67 7
67 8
37 4
60 5
60 7
69 4
35 2
78 3
34 6
im s
ĠRe ims
ĠAl l
Villa ge
ĠFerr aud
ĠLiber t
ĠLay ene
ĠMat am
St ade
ĠDo ie
ĠIbrah ima
ĠLind ependance
ĠSot iba
ĠEle ct
ĠMars at
P o
P ro
P res
a w
s p
ĠSene lec
ĠP iscine
ĠF ret
ĠI cs
ĠK erm
20 2
Ġ8 1
00 1
00 8
55 0
55 6
40 1
48 0
48 9
38 0
49 7
49 8
39 0
67 9
37 5
37 8
37 9
45 0
45 2
45 3
45 6
60 9
69 1
69 2
69 6
35 1
35 7
ĠNd ind
34 2
75 3
75 9
36 2
77 2
46 1
Ġ15 7
58 7
ĠCar refour
ĠAz iz
adj i
ĠTol l
ĠTe chn
ĠIn tern
ĠArt is
ĠFay cal
ĠPap a
ĠMagistrat s
ĠKerm el
ĠNdind y
ĠIntern ation
F r
f ant
h o
x a
en fant
ĠA st
ĠM ade
ĠF enetre
ad ere
27 2
29 1
ol og
00 6
55 1
48 2
65 2
65 9
38 5
38 6
38 8
49 3
49 9
39 1
39 2
39 8
37 1
37 2
37 6
45 1
45 7
45 8
69 5
69 8
79 6
34 4
70 9
75 7
36 3
44 3
44 6
ĠPy r
ĠMal enfant
64 3
57 4
ĠY eumbeul
ĠGou ye
ĠSom one
ich ard
ĠLimamou laye
ĠUrban isme
Mb our
ĠMaur ice
ĠMari ama
Fr ont
P ort
P arc
f e
s en
v a
y l
ĠS k
ĠS all
is on
ĠT r
ĠT erm
que s
24 2
Ġ9 3
00 7
55 3
47 8
68 9
48 1
48 3
38 1
38 4
49 4
49 5
39 3
67 1
67 2
67 6
37 7
60 4
69 3
35 6
35 8
ĠLe cl
ĠNd i
78 0
78 1
78 2
78 5
85 0
79 0
34 1
70 1
75 1
36 6
99 2
44 2
44 4
66 3
50 3
80 4
59 7
46 2
46 3
64 1
Ġ20 13
ĠSe ck
ĠY f
ĠMa z
alif a
ĠPal m
ĠEntre e
ĠThi andou
ĠDegau lle
ĠAst ou
C roisement
b ed
m y
o me
ar i
ĠS ap
ĠN e
ou n
le ine
an a
ĠF ort
ĠB ic
ĠI ba
ĠT a
25 1
28 1
ĠO il
ĠPo inte
Ġ9 1
00 4
00 9
55 2
47 9
68 1
68 5
38 7
38 9
67 5
69 7
69 9
35 3
ĠLe on
78 7
78 9
79 4
75 2
36 1
50 2
80 3
80 5
77 4
64 2
ĠSe a
ĠAb d
ĠCa stor
ĠHo sp
ital ier
iou th
ĠAd ama
Gue ule
ĠAmbass ad
ul t
An gle
ĠPh il
ĠPrincip ale
ĠElect ra
ĠMade leine
ĠLecl erc
ĠBic is
ĠHosp italier
U sine
i um
o la
u ll
ar che
ĠR an
ĠL ss
ĠP c
ĠDe p
la m
ce e
ent aba
ĠCo mplexe
ĠH ab
op ole
26 1
erm arche
ĠEn se
Ġ10 1
55 7
35 4
78 4
78 8
85 1
85 8
79 2
79 5
79 8
79 9
70 3
75 6
75 8
ĠKeur y
66 2
66 4
66 6
80 2
80 7
89 3
89 4
77 1
77 7
46 4
88 6
98 7
ant ine
08 6
akh in
oum bed
ĠCas ino
ĠDou an
ĠLy cee
ĠAinoum ady
ĠDem ba
ĠSk ir
ĠThiandou m
A gence
g ue
h s
l ou
t o
y er
ĠN ull
ĠA bass
ou sse
ĠF lo
Ġ1 12
Ġ1 24
ĠV ert
ĠT am
ĠDi ene
ac ques
st it
and ian
ier re
iste re
ĠJ acques
00 3
85 7
79 1
70 2
70 5
70 6
70 7
70 8
44 1
66 1
50 8
80 1
89 0
89 5
ĠChe z
59 0
59 5
77 3
77 6
88 4
88 7
58 4
58 6
ĠAb c
ĠY arakh
ĠKh alifa
ĠFall ou
ĠDam as
et o
ĠLib an
Alle e
ĠTivaou ane
ĠDiar ama
Pro visoirement
ĠEnse ign
akhin ane
oumbed ioune
ĠDouan es
ĠFlo or
stit ut
D erriere
D omaine
S acr
g ane
o d
ĠR ene
ĠC d
ĠC l
ĠM ont
ĠF on
Ġ1 13
ĠB adi
on ome
ot ane
ĠT andian
ĠDi allo
ĠO m
ĠO uagou
Ġ8 2
gu ene
78 6
tier es
85 3
85 6
79 3
79 7
70 4
99 6
99 9
50 1
50 7
80 6
80 8
89 1
59 1
88 1
90 1
57 3
ĠAut onome
ĠImp rim
ĠPa ix
Pla ge
ĠGu entaba
ĠPal ace
ĠBe lle
ĠCit y
ĠMedic al
ĠAmbassad eurs
ĠRan r
ĠBadi ane
ĠImprim erie
B opp
P et
h n
i pp
s acre
ĠS ant
ak a
ĠA c
ĠR ichard
ĠC antine
ĠL oc
ĠP ierre
ĠT our
ss o
int he
ĠO n
ĠFo ot
Ġ9 2
ĠLe ona
85 2
85 4
85 9
99 0
99 3
50 9
80 9
89 2
89 6
89 8
59 4
88 2
88 3
88 8
90 5
58 1
Ġ20 3
be ss
87 3
ĠCa b
ĠKh a
oum ba
ter sen
mb arc
ĠDa v
Un ite
mbarc adere
A ppar
M al
Y eumbeul
a v
c u
c ad
i la
r t
ĠD ar
ĠD ab
ĠS oumbedioune
ĠC red
ĠC oumba
ĠF or
Ġ1 33
Ġ1 55
Ġ1 11
Ġ1 21
ĠV al
ĠPo st
ĠLotissement issement
Ġ10 9
ĠNd ao
99 1
99 4
99 5
99 8
50 4
50 5
50 6
89 7
59 2
59 6
59 8
90 9
58 2
58 3
ĠMou st
57 1
57 2
57 6
98 3
98 6
97 2
ĠAl i
95 4
ĠGeneral e
ĠEau x
ĠTe yl
olog ie
ĠAbd el
ĠHab ib
ĠEnseign ants
ĠRanr har
Appar tement
ĠCred it
D alifort
N ouveau
a z
d u
v s
ĠS tele
ĠN ouveau
in us
Ġ1 23
Ġ1 31
ĠB ign
or iz
ce inte
ĠDi eupeul
ĠH oriz
ss a
ĠLa s
ĠO r
ĠO ran
ĠMermoz sacre
ĠTh io
ĠHann bel
ĠSo ce
ĠSo da
99 7
59 3
ĠPe tersen
90 2
90 7
Ġ20 1
98 2
ĠAl iou
95 1
95 3
87 1
87 2
87 4
ig o
ĠRa il
ĠMa ison
ĠTe lec
ĠPet ite
ĠSup ermarche
ĠTechn opole
ĠMaz out
ĠOm vs
ĠDav id
ĠTeyl ium
ĠHoriz on
ĠTelec om
B el
M bao
P arcelle
R e
S e
n o
u ment
ar y
ĠC e
ĠL ac
ĠM am
in ot
Ġ1 14
Ġ1 67
ĠG ont
ic ourt
ĠT age
ĠBou bess
ard in
ĠLa h
Ġ8 3
ĠMal ika
90 3
90 4
90 6
98 1
98 4
97 1
97 3
ĠSe b
95 6
ĠSal va
87 6
ĠNation al
ĠBan que
ĠMag inot
ĠSow eto
ĠCon ach
Po inte
ĠPalm as
ĠDab akh
ĠBign ona
ĠOran ge
B ureau
C anal
L es
S oprim
a be
k ou
l an
m and
u mette
ĠN ia
ou g
ĠP eul
Ġ1 60
Ġ1 32
Ġ2 10
Ġ2 22
ĠG ab
ĠT igo
ac inthe
ss ane
Ġ10 3
ia ba
ĠTh ier
ĠGrand s
90 8
ĠMou lin
97 4
95 2
ĠMass amba
08 1
08 4
oum a
iss on
ĠRou me
ĠFran ca
ĠCime tieres
Mar che
ĠMon ument
Un iversite
ĠAll umette
ĠInternation al
ult ure
ĠPhil ipp
ĠCl ub
ĠMont agne
Pet it
ĠVal my
A ut
B ar
s our
u x
u gal
z z
ĠD en
en n
ĠS ip
ĠS un
ĠS hs
ue l
ĠL ona
ĠM ang
le t
ĠP lle
an o
in al
Ġ1 27
Ġ1 29
Ġ1 65
Ġ1 37
ĠB iche
ite rie
ĠI le
se e
ĠDi a
ĠK at
ĠEn ceinte
ĠJ a
ĠZ ola
ĠSo ca
ĠLe st
ĠNd eu
as is
Ġ20 5
ĠCa ille
08 2
08 3
ĠAr mand
En tre
ĠBl an
gn icourt
ouve lle
ĠNimz ath
ĠMan sour
Mal ika
ĠThier no
ĠPhilipp e
Bar gny
ĠLona se
ĠBiche s
ĠSoca be
A rafat
H o
I n
a h
b all
g rand
h iou
k m
m er
ĠD ina
al a
ĠC se
er ine
ĠE ch
ĠP ape
Ġ1 16
Ġ1 39
Ġ1 69
Ġ1 36
re ction
ĠV el
on g
ie l
ĠDi rection
ss ou
age ment
ĠJ amba
ĠJ ardin
ik otane
ch an
ina w
ĠAn grand
ĠSo ciale
ass age
ĠUn o
ĠUn ies
ĠAl ia
Ġ17 3
ĠKh ouma
ang a
ang eur
ĠTer anga
ĠW akhinane
ĠDiam b
ĠCommer ciale
ĠNation s
ĠJau ne
ĠAfr ic
ĠThe se
ĠAu chan
aul t
ĠDou ane
ich a
ĠVer te
ĠBu gnicourt
ĠFoot ball
ĠMoust aph
ĠGont ran
ĠMoulin s
ĠAllumette s
Aut oroute
ĠSun ugal
ĠMang in
ĠSocabe g
Ho tel
S a
g l
h iaba
i ya
l la
q u
r ousse
y r
ar o
ĠS id
ĠN gal
ĠA s
ĠA icha
ou ne
ĠC ine
ĠM ith
ĠF ila
Ġ1 22
Ġ1 90
ĠB amb
ĠRue s
il or
Ġ2 12
Ġ2 57
ĠG aye
ĠG uil
ĠCo op
au te
ĠFo yer
ro sso
gu s
ĠTh iouth
ĠSo d
ĠComm un
ĠBis cu
ĠResidence s
ĠSa f
ĠSe c
ĠAbdou l
ĠIs lam
ĠNi akh
ĠNi oro
ara f
ĠVo ie
Co mm
Co mplexe
ĠLap erine
ĠMin istere
xa ay
ĠDep ot
lou is
ĠConach ap
abe th
ĠEch angeur
gl ise
ĠGuil let
rosso gui
B our
C ab
G are
S tele
a is
d erkle
g agne
n t
o k
p s
r i
r ing
s a
v c
v d
ĠS n
ĠS is
ĠR ia
ĠR iv
ĠC ulture
ĠP at
ĠDe ux
in at
Ġ1 17
Ġ1 28
Ġ1 68
Ġ1 59
Ġ1 98
ĠB ag
ĠB ass
Ġ2 27
Ġ3 11
ĠT p
ĠT ran
ĠO asis
ĠJ vc
ĠAss ur
lmad ie
ĠAn ne
ĠNd iou
ĠUr ba
ĠSy lla
ĠSaint louis
Ġ20 7
ĠEl h
ĠKh ar
ĠDieuppeul derkle
Ġ40 23
ĠAr ret
ĠSer as
fr ique
istr ict
ĠFad h
ĠCas ier
ĠCas tel
ĠGr d
ĠKebe mer
Cam p
ira il
Ca stor
ĠDeg agement
St ation
ĠMan el
ĠKa w
ĠMon te
Ġ125 00
Ġ145 24
ĠLap r
ĠEly see
ii i
ĠPyr am
ĠTerm inus
ĠSkir ring
ĠAli ze
ĠDiamb ars
ĠMoustaph a
ĠCine ma
ĠAssur ance
D ire
d ad
l ant
o f
r ond
r iere
x iii
ar tement
en guene
ĠS idence
ou do
ĠC f
ĠC ham
er ation
ĠE glise
ĠM ad
ĠM aco
ĠP assage
ĠDe au
Ġ1 34
Ġ1 66
Ġ1 89
ĠB ande
is abeth
or m
ĠG ar
ĠX xiii
ĠDi ack
ĠH b
ĠLa z
ĠO km
Ġ0 0
ĠAss en
ĠPe age
ĠMb enguene
ci en
Ġ18 1
Ġ17 6
ĠTou re
Ġ19 1
ĠAr ame
ĠNg om
ĠSan itaire
ĠFat ou
ĠCard inal
ĠLib asse
ira frique
ĠBc c
ul d
ĠSou f
ĠSou s
ĠCon se
ĠCla irafrique
ĠMarie me
ĠPre st
ĠArtis anal
ĠKha ira
ĠPeul h
ĠVel ing
ĠJamba ars
Bour guiba
ĠPyram id
oudo ss
C om
L iber
U cad
a ie
c ale
e cine
i y
j j
m o
n ar
t i
y n
y off
ĠS iga
ĠS ica
ĠA ere
ĠC at
ĠC de
er ne
ĠL ots
ĠE d
ĠE re
ĠM as
ĠM end
ĠP ot
ĠP inet
an ine
Ġ1 18
Ġ1 35
re ss
ĠB al
ĠB all
ĠB us
ĠB ab
ĠB asse
ĠB uld
Ġ2 24
Ġ2 50
Ġ2 31
ĠG l
ĠG ad
am ique
ĠFa ye
ĠH a
ĠK er
ĠK enn
Ġ5 00
ĠFo irail
ĠU ba
ĠEx cl
ĠJ ap
ĠAm b
ĠNd e
as in
Ġ14 1
Ġ14 2
Ġ14 3
ĠCol is
ĠEl isabeth
ĠKh oudoss
ĠDiam a
ĠAr rond
ĠCommer ce
ĠMe ss
ĠSarr ault
ĠBan k
Th ies
cot te
Diam alaye
ĠDa h
ĠEnf ants
ĠJo hn
ĠThi am
An cienne
ĠSor ano
ĠPetit s
ĠImm o
ĠAt lant
ĠTam aro
ĠLoc al
ĠMam adou
ĠDen ain
Cab inet
ĠRiv on
ĠElh adji
Dire ction
ĠMaco dou
ĠAssen ies
ĠConse il
ĠVeling ara
jj ar
ĠMas cl
ĠMend y
ĠGad aye
ĠExcl us
2 11
3 11
A pecsy
D istrict
a te
d ral
i eu
l ene
n os
o ir
t s
v ed
w a
ĠD g
ĠD ie
ĠD ame
ĠS amba
ĠS acr
ĠN ab
ĠR ip
ĠC yr
er ic
er at
ĠM ach
ĠP ed
an ale
Ġ1 40
Ġ1 48
Ġ1 38
Ġ1 49
Ġ1 70
Ġ1 46
ĠB ara
eu f
Ġ2 19
Ġ2 45
Ġ2 78
Ġ2 000
ĠG y
ie me
am ine
ĠI ssa
Ġ3 00
ĠDi adji
ac ine
ĠO bel
lev age
he dral
and ing
ed y
ĠAm eric
ol l
all y
ĠChe ick
ĠMb o
ĠSa hm
ĠRe al
ĠBel ved
ĠSt anding
Ġ17 1
ĠKh or
ang le
ĠSed hiou
ist ra
ĠGeor ge
ĠRa hm
ĠMe zz
amb ars
ĠMag uil
ĠBar ry
oul ene
ĠGu inaw
ĠIn stitut
Diam aguene
ĠPal ais
ĠSu ite
ĠSou k
Ġ107 00
ĠCla ud
ĠFer aud
oun oune
ĠCab inet
ĠPost aux
ĠNia sse
ĠGab on
ĠKat ia
ĠJa xaay
In stitut
ĠAfric aine
ĠBiscu iterie
ĠRia om
ĠLapr ade
Com ico
Liber t
ĠCat hedral
ĠAmb roise
ĠArrond issement
ĠDah ra
ĠRivon ia
ĠMascl ary
ĠCyr nos
erat ive
ĠObel isque
ĠCathedral e
0 9
5 27
B l
C h
I le
I mp
N iary
c as
h ing
n ass
r ine
r ain
s al
s er
s ara
t ique
v er
Ġ Qu
ĠS ci
al o
ĠA xa
ĠR iya
ĠC isse
ĠL an
ĠL akh
ĠE levage
ĠM or
ĠF n
Ġ1 30
Ġ1 26
Ġ1 80
la ir
ĠB alla
ĠV ill
Ġ2 14
Ġ2 30
Ġ2 55
Ġ2 35
ĠG a
ĠFa c
ĠH en
ĠU f
Ġ9 653
ĠJ ust
ur ite
ch ot
ĠTh iar
our a
as hing
ass oul
ĠComm iss
ĠUn it
Lotissement issement
ĠMb oup
ĠRe gus
Ġ15 3
Ġ20 2
Ġ20 8
ĠCar riere
ĠMou ss
ĠAb att
ape c
ĠW ashing
ĠDial aw
ĠPol y
ĠGou nass
ĠMag asin
ĠHy acinthe
Ġ86 35
alla h
ĠDan s
ĠBe ss
Ġ110 00
ĠAdmin istra
ĠEnface de
Es cale
Mariste s
Ġ120 00
ĠArtis anale
ĠPyr ot
ari at
ĠSant hiaba
ĠLah ad
ĠBlan chot
Sa int
ĠCoop erative
ĠSaf co
ĠSec urite
Comm une
inat oul
ĠPot ou
ĠBall on
ĠKenn edy
ĠAmeric ain
ĠBelved ere
ĠMezz anine
ĠClaud el
Bl oc
Imp asse
ĠCommiss ariat
ĠWashing ton
0 5
3 21
5 68
A r
F oire
F ith
G u
L e
N d
N i
N on
Q tier
a il
a se
b eu
g y
g ent
g ne
i ro
j o
s ane
s ao
ĠD al
ĠS d
ĠS on
ĠN a
ĠA lmadie
ĠR es
ĠR oport
ĠR ab
ĠC t
ĠC or
ĠC iv
ĠC to
ĠC vd
ĠL ho
ĠE mbarcadere
ĠM s
ĠM and
ĠM ut
ĠM aka
ĠP n
ĠP an
ĠP lan
an ing
ĠF ed
in s
Ġ1 75
Ġ1 95
ĠB rac
is ci
ĠV ue
ĠV oile
eu x
il s
Ġ2 15
Ġ2 23
Ġ2 00
Ġ2 49
Ġ2 46
Ġ2 90
Ġ2 84
Ġ2 298
ĠG all
ĠI p
Ġ3 27
ĠT aco
ĠCo cot
ff rine
off re
ba se
ĠO ff
he t
ĠMar e
ĠMar n
ĠMar eme
ĠJ offre
ort ie
ol of
ĠMed inatoul
ĠSo c
ĠMal amine
Ġ15 6
Ġ20 6
ĠMou na
ĠSe kou
Ġ18 2
ĠY eng
ĠY acine
Ġ17 2
Ġ17 4
Ġ40 2
ĠBat rain
Di eupeul
ien i
Pla teau
ĠNi aning
ĠFad iouth
ĠSom isci
ĠBa ie
ĠKa ffrine
ĠOu rossogui
ĠGo el
ĠTerm e
ĠSkir ing
ĠFon c
ĠAc ote
Se b
ĠCe m
oug ou
ĠSip ress
Entre e
ĠNgal andou
ĠBag dad
ĠTran s
ĠAnne xe
ĠNdiou m
ĠMonte il
iy ou
ĠBab acar
ĠHa jjar
ĠMess ag
ĠMaguil ene
ĠPyrot he
ĠLho tel
ĠBrac het
ĠCocot iers
ĠYeng oulene
1 140
1 180
2 100
2 300
B aie
E mbarcadere
S ene
T ally
a ya
b ar
c n
c ole
c olobane
d j
d y
g ie
h opital
i al
i at
k a
l issement
p a
p t
p co
r is
s m
s ar
s enal
v ue
ĠD d
ĠD ard
en ue
ĠN ouvelle
ĠA h
ĠA k
ou da
ou ssou
ĠR n
ĠR assoul
ĠC ot
ĠC har
ĠL hopital
ĠE ss
ĠE pi
ĠM il
ĠM our
le x
le y
an ada
ĠDe ss
Ġ1 19
Ġ1 78
Ġ2 13
Ġ2 17
Ġ2 28
Ġ2 68
Ġ2 11
Ġ2 34
Ġ2 70
Ġ2 42
or is
or amique
ĠG ra
Ġ3 99
ib ya
ble au
ad isson
Ġ4 78
ss as
Ġ6 70
at re
lm an
ĠO euf
ine ss
ed ougou
Ġ9 976
ĠJ ambars
ĠJ oris
Ġ10 000
ch al
ĠMed ecine
ĠBour gui
ĠSo le
ĠNd ama
ob il
ont y
ĠLam y
im at
Ġ15 1
ĠXe w
om b
ĠFass colobane
ĠSe pco
pe ment
ĠTou bab
ĠW oro
Ġ30 2
ill on
teur s
ĠRond point
ĠSer gent
ab is
ĠBr iere
ĠSar l
ĠAu x
iss erie
ĠBa y
ign y
Ġ185 22
ĠNo el
ĠBo a
ĠSup er
ĠGo ssas
ĠBelle vue
ĠDar abis
ĠThio ssane
ĠFranca is
ĠFranca ise
ĠNdeu gagne
ĠBamb ilor
ĠCommun aute
ĠCulture l
ĠPat isserie
ĠGar age
ĠPrest ation
ĠBuld ers
ĠJap on
ĠExclus ive
ĠMbo de
ĠLakh sane
ĠThiar gane
ĠRab y
ĠPan oramique
ĠFed eration
ĠMare chal
ĠDess us
1 100
1 120
1 150
1 130
1 190
1 160
1 170
2 120
2 150
2 140
2 180
2 130
2 190
2 160
2 170
3 100
3 120
3 150
3 140
3 180
3 130
3 190
3 160
3 170
3 300
3 260
3 200
3 240
3 290
3 220
3 270
B an
B at
D j
L ac
M in
N g
N ouvelle
Q rt
S ur
g er
i eur
k r
o ue
o isse
p ort
s ir
x im
y s
ĠD ang
ĠS ao
ĠS ortie
ak ou
ĠN af
ĠA ero
ĠR c
ĠR s
ĠR ur
ĠR adio
ĠR adisson
ĠC ro
ĠC iel
ĠC anada
ĠM isse
ĠM ao
ĠM iss
ĠP l
ĠP t
ĠP el
ĠP ubl
an i
ĠF al
ĠF amil
in dia
Ġ1 47
Ġ1 79
Ġ1 44
ĠB atte
ĠB et
Ġ2 16
Ġ2 25
Ġ2 40
Ġ2 65
Ġ2 39
Ġ2 32
Ġ2 59
Ġ2 71
am ance
ĠI m
Ġ3 30
Ġ3 33
Ġ3 80
Ġ3 63
Ġ3 81
se s
ĠFa w
ĠDi ok
ĠH ou
ĠH oll
Ġ4 14
Ġ4 313
ĠK edougou
Ġ5 16
Ġ5 27
Ġ5 70
ff aire
ĠFo re
me t
ĠEx p
it a
ro m
ĠAm it
ĠAm az
Route s
ĠZ e
ĠLe cole
ĠMb ar
Ġ15 8
ĠPres de
Ġ20 4
Ġ20 19
ĠCol y
ĠPar oisse
ing ue
Ġ18 4
ĠY ene
ĠY aye
ĠY oro
ĠY oussou
ĠCa isse
ĠCa fe
ĠMame lle
ĠW ade
ĠGau le
ĠPro m
ĠPro visoirement
andou lene
Ġ25 66
ĠAr c
iou gne
ourou nar
ĠHass ane
et ou
ĠBar sal
ĠCas erne
ound iougne
ĠIn ter
ĠDa ouda
ĠMat ar
ĠBer eng
ĠHydro base
ĠBo x
ĠBo igny
eng ue
ĠPre m
ĠBu ge
ĠInternation ale
fe ss
ĠTa if
ĠTa bleau
ĠOil ibya
ĠTam sir
ĠFon ction
ĠCity dia
ĠOn as
ĠFor ail
ĠRail s
ĠKaw sara
ĠCf ao
ĠLaz are
ĠEd k
ĠBus iness
ĠNde ye
ĠJust ice
ĠPoly c
ĠAdministra teurs
ĠCiv ils
ĠMand iaye
ĠMut uel
ĠMarn ane
ĠMouna w
Sene gal
ĠGra ine
ĠSole il
Bat iment
Min istere
xim ite
ĠMisse tte
ĠMao do
ĠDiok oul
ĠBarsal am
ĠBereng er
4 373
A u
A z
B ene
C ar
C hn
E st
J et
L a
L ots
S onepi
V irage
W akhinane
Y arakh
d in
d ane
e st
g gy
h io
i ge
k k
k lin
k et
l ine
m ation
r d
t ension
v re
ĠS op
al ier
te s
ĠN b
ĠN orm
ĠR al
ĠR ade
ĠR andoulene
ĠC her
ĠL t
ĠM ack
an el
ĠF e
ĠF ime
ĠF oundiougne
Ġ1 97
ĠB ia
il ene
Ġ2 20
Ġ2 33
Ġ2 48
Ġ2 37
Ġ2 36
Ġ2 80
Ġ2 56
or ne
ĠG ain
ĠG ond
illa bert
Ġ3 24
Ġ3 25
Ġ3 62
Ġ3 91
ven u
ĠT res
ĠT pe
ĠT amba
ĠCo ch
ap ar
ĠH old
Ġ4 00
Ġ4 48
Ġ4 59
ĠBou tique
ĠK o
30 85
Ġ5 17
Ġ5 24
st ier
st os
ĠO p
ĠMar it
ĠMar gue
ĠU cad
ĠEn d
ĠJ araf
Ġ0 00
ĠAm al
ia w
ĠAn cien
ĠSo k
ĠNd in
ĠNd ia
ĠNd iar
as n
ĠUr ab
ĠMb allo
ĠMb engue
ĠSa v
Ġ15 2
ĠBel f
ĠCar re
ĠFr on
ĠDiou m
iar ry
ip e
Bou cotte
ĠAl ima
ĠAl tern
Ġ18 6
ĠAb ou
ĠY acinthe
ang ue
ĠW ar
ĠPro ximite
Ġ30 85
ill y
Ġ19 6
ĠGal ass
ĠHo ggy
gi ene
ĠNg apar
ab rousse
ĠBat a
Rond point
oum el
ze lle
ĠIs le
ĠBir a
ct ure
ĠCad re
ĠCentral e
ĠHy giene
ĠCas amance
ĠRou ge
ĠGu illabert
ĠPal ene
Ġ86 13
agou dane
ĠFran klin
ĠPer se
ouve lles
ĠBa stos
ĠXc f
Ġ99 85
Ġ99 77
ĠAp ix
ul te
ĠMan uel
ĠLob at
ry um
ĠPh ase
ĠCla ire
Ġ145 63
ĠAt ryum
ĠCour s
Po ste
ho w
ĠTr i
ĠNdi aga
ĠSap i
ĠDep artement
ĠLoc aux
ĠFor mation
ĠSeb ikotane
ĠFila os
ĠUrba in
ĠDiack sao
Ġ00 221
ĠBal ley
ĠKer etou
ĠLan sar
ĠGa zelle
ĠHen ry
ĠAbatt oir
ĠGall ieni
ĠFonc ier
Seb ikotane
ĠMessag eries
ĠMil itaire
ĠMour ide
Ban lieue
ĠDang ou
ĠRur ale
ĠPubl ic
ffaire s
ĠFore stier
ĠMbar gane
ĠBuge aud
ĠMounaw ara
Az ur
Car refour
Chn u
ĠNorm ale
ĠFime la
ĠBia o
ĠGain de
ĠTres or
ĠCoch apec
ĠHold ing
ĠMarit ime
ĠUrab m
ĠAltern ance
5 29
A ir
B amb
K ao
K ounoune
N um
S er
T erm
T our
a teau
a ise
b r
g ar
g are
i ff
i ale
l ix
l ter
p is
u nd
u ve
v ert
z za
ĠD p
ĠD er
ĠD ag
ĠD ara
ĠD agoudane
en us
ĠS india
ĠSenegal aise
ĠN ani
ĠA g
ĠA lm
ĠA id
ou pe
ĠR eu
ĠC ont
ĠC oul
ĠC ath
ĠL ag
ĠE qu
ĠM au
ĠM us
le in
ĠP ie
ĠP ublique
ĠP out
ĠP lein
ĠF m
ĠF is
ĠF ith
ĠF oug
Ġ1 99
Ġ1 64
ĠB le
ĠB ord
ĠB as
ĠV ol
Ġ2 18
Ġ2 69
Ġ2 79
Ġ2 98
Ġ2 43
Ġ2 73
Ġ2 82
or om
or ama
ĠG s
ĠG es
ĠI ta
ĠX andar
Ġ3 10
Ġ3 22
Ġ3 28
Ġ3 26
Ġ3 55
Ġ3 49
Ġ3 78
Ġ3 79
Ġ3 61
ĠT ag
ĠT ob
ĠT ra
ĠT ilene
ag ue
ĠCo de
ĠCo sec
ĠDi akh
ann ah
10 558
ĠH ar
ĠH al
ad o
Ġ4 67
Ġ4 45
Ġ4 77
Ġ4 53
Ġ4 71
Ġ4 82
Ġ4 002
op pement
ĠBou ne
Ġ6 46
Ġ6 94
Ġ6 73
at a
Ġ5 30
Ġ5 74
Ġ5 658
ĠU pis
it te
ĠJ us
Ġ0 000
ir ou
ir ur
Ġ8 115
Ġ8 651
ĠAm sa
ĠAss ain
ol off
ĠGrand yoff
ta igne
ĠSo s
ĠLe b
ass a
ĠMal ang
ĠUn ivers
ĠPe lle
ĠDj illy
ĠSy p
ame cas
ĠUnite s
om o
ĠPar is
end el
Ġ18 3
um a
Ġ16 1
ero lle
ĠTou s
ĠAut o
ĠKh omb
ĠKh ourounar
Ġ30 3
Ġ30 5
Ġ30 13
ĠPomp ier
Ġ19 2
na bou
Ġ40 9
kh aya
Ġ29 1
ĠAr senal
ĠSey nabou
ĠNg a
ĠImp ot
fr ont
ĠBat imat
Ġ27 155
Ġ50 5
Ġ50 555
ĠAv ant
ĠEsc alier
ph a
ph oue
ĠBir ima
ĠRo i
ĠRo yer
ĠHy p
ĠGu isse
Ġ86 19
ĠMill on
ĠSam assa
ĠDou ta
ĠBe m
ĠBe lair
Ġ99 000
ĠNo s
ĠDeg go
ĠKhad y
ĠLy on
ĠKa y
ĠNot re
ĠMon taigne
Tou bab
Ġ115 00
erc le
ĠFer din
ĠImm obil
ĠMedic ale
ĠTivaou ne
ĠAll ant
ĠTr ain
Re gion
ĠCe our
ĠLah at
lan c
ĠDia waye
ĠNdeu n
ĠIslam ique
ĠAssurance s
ĠAtlant ique
ĠMach ala
ĠBalla y
beu ss
ĠDal al
ĠOff ice
ĠPyrothe cn
ĠEss ar
ĠBay eux
Ng aparou
ĠRs idence
ĠHou phoue
ĠFonction naire
ĠPolyc linique
ĠBelf ort
ĠCarre aux
ĠNgapar u
ĠTri angle
ĠAbattoir s
ĠDag orne
ĠAid ara
ĠFis cal
ĠTag lou
irur gie
ĠKhomb ole
ĠHouphoue t
4 332
5 28
B is
B ande
C ap
D ep
K har
M a
M bo
N ot
N dia
P e
R ichard
S how
T f
T err
T ivaou
c ou
d r
g m
h i
h ou
h ie
i mmeuble
k e
k i
n u
o a
o itte
p ens
p endance
t al
v al
v ice
v ille
x ieme
y ene
z y
z ain
Ġ &
ĠD is
ar ma
ĠS el
ĠS co
ene uve
ĠN s
ĠN ouvelles
ĠA f
ĠA la
ĠA th
ĠA yn
ĠA ffaires
ou d
ĠR h
ĠR uf
ĠC k
ĠC n
ĠC er
ĠC ne
ĠC out
er ins
ĠE mb
ĠM ult
ĠM kr
le s
ĠP ul
ĠP ref
ĠP amecas
an ie
ĠDe vel
ĠF an
ĠF in
ĠF eu
ĠF lix
ĠF arma
Ġ1 63
la bou
re me
ĠB il
ĠB hs
ĠV ie
ĠV ent
ĠV ia
ĠRue lle
Ġ2 26
Ġ2 66
Ġ2 97
Ġ2 63
Ġ2 87
Ġ2 62
Ġ2 76
Ġ2 002
ĠG d
ĠG m
ĠG ent
ĠG am
ĠG ic
ĠG and
ĠG eni
ĠG az
ĠG oumel
ie te
ie ye
ĠX b
ĠX f
Ġ3 12
Ġ3 13
Ġ3 14
Ġ3 20
Ġ3 68
Ġ3 32
Ġ3 46
Ġ3 90
Ġ3 54
Ġ3 73
Ġ3 74
Ġ3 52
Ġ3 93
ven ir
se ille
ĠT op
ment aire
ĠCo mp
ib un
ĠDi eng
ĠDi araf
ĠDi xieme
ac adere
ĠAvenue enue
Ġ4 85
Ġ4 88
Ġ4 42
Ġ4 54
Ġ4 373
ĠBou cotte
Ġ6 64
ĠK and
ĠK ip
ĠK ounoune
ĠK abrousse
at y
Ġ5 28
Ġ5 85
Ġ5 66
Ġ5 32
20 82
ĠLa ob
ĠO f
ine s
he l
ĠMar is
ĠMar seille
ĠFo ch
it t
it ue
Ġ9 256
Ġ9 343
Ġ10 50
Ġ10 300
Ġ10 200
Ġ10 554
Ġ8 16
Ġ8 175
Ġ8 252
Ġ8 454
ur s
gor a
ol ique
ol biac
69 83
ĠSo f
ĠSo ci
as p
im od
Quar t
ud io
ikh otane
oc o
oc ap
ĠMb oro
ĠSa hel
ĠRe gal
Ġ15 4
Ġ15 000
ĠSt udio
ĠMou ssa
ĠMou nt
Ġ14 000
ĠCol line
om re
ĠDiou l
ip se
ĠSe bi
ĠAl y
ĠAl pha
ĠY um
ĠTou b
ĠGor om
ĠKh our
ang ane
ĠW ore
ĠSed ima
ĠPro fess
Ġ30 89
ĠPomp iers
ĠGal erie
Ġ40 1
Ġ40 3
Ġ40 4
ĠCap a
Ġ25 1
Ġ25 3
Ġ29 2
Ġ29 3
Ġ29 6
ĠProlonge ment
Grand e
ĠNg ue
akh a
akh ira
ĠCh an
ĠCh nu
ĠIs m
ĠNi aga
ĠNi omre
ĠRaff anel
mb re
ĠRo om
ĠRo khaya
igne ment
ĠShe lter
Ġ100 9
ĠGu endel
ĠIn t
ĠMart h
ĠEntre p
ĠMat y
ĠPaillote s
ĠPd s
ĠDel oitte
ĠTound oun
Ġ115 24
ĠSup reme
ĠQ rt
ĠVer d
ĠImm orama
Ex tension
ĠAinoum adi
ĠPre vert
ĠPrincip al
ĠCour ses
olog ique
ĠTr ibun
ĠSap co
ĠTa iba
ĠOn omo
ĠPost al
Se a
ĠNia ss
ĠBlan c
ĠSid ak
ĠSod alo
ĠNiakh al
ĠBass irou
ĠCham ps
ĠMad ieye
ĠNab il
ĠPed iat
ĠRahm ane
ĠSouk y
ĠSouk ane
ĠVill eneuve
ĠFac ulte
ĠUf i
Le ona
ĠSd v
ĠGoel an
ĠAcote de
ĠTrans it
ĠXew eul
ĠSuper ieu
ĠAero gare
ĠCro ix
ĠMiss ira
ĠPl us
ĠPel erins
ĠBatte rie
ĠBet hio
ĠFaw zain
ĠAmit i
ingue re
ĠPrem ier
ĠCher if
ĠEnd ss
ĠSok one
ĠNdin di
asn ack
Kao lack
ĠCath olique
ĠFoug erolle
ĠVol ant
ĠTob ago
ĠJus te
ĠLeb lanc
ĠUnivers itaire
ĠNos oco
ĠLyon na
ĠNdeun gagne
ĠFonctionnaire s
Dep artement
pens aire
ĠDis pensaire
ĠAla ssane
ĠCne ps
ĠCout ure
ĠMult imod
ĠPref e
ĠDevel oppement
labou l
ĠVent s
ĠGam ma
ĠLaob e
akhira te
ĠToundoun p
ĠTribun al
ĠFawzain i
5 35
5 658
6 15
8 674
A p
A lmadie
A venu
E ta
G al
I m
M e
N e
N imz
N iarry
P a
P lle
S an
S am
S om
S ant
T ri
Z iguinchor
a gal
a ille
b re
b is
b ia
b lissement
c ord
c om
d s
d or
f i
f m
f o
f or
f ace
h l
i ite
i ja
j i
j x
l ing
l ipse
m s
m ar
n ance
n adio
o lle
r ue
r ic
r ime
t olbiac
u lman
v ia
y enne
y bar
Ġ Quart
ĠD f
ĠD v
ĠD aka
ĠD hl
en te
en gu
ĠS au
ĠS uar
ĠS ol
ĠS ain
ĠS im
ĠS ise
ĠS ira
ĠS uma
ĠSene ba
ĠN f
ĠN ou
ĠN eur
ĠN ep
ĠA a
ĠA ba
ĠA ise
ĠA tel
ĠA ig
ĠA ction
ĠA wa
ou ye
ou ca
ĠR en
ĠC c
ĠC ou
ĠC cs
ĠC ercle
ĠL ix
ĠL ars
ĠL ena
ĠL immeuble
ĠL inguere
ĠE du
ĠM ac
ĠM ane
ĠM to
le le
ĠP ad
an at
ĠDe c
ĠDe la
ĠF b
ĠF id
ĠF ana
Ġ1 77
Ġ1 88
Ġ1 62
la is
ĠB rie
ĠB akh
ĠV nd
ĠV iv
eu le
il car
Ġ2 60
Ġ2 77
Ġ2 41
Ġ2 54
Ġ2 86
Ġ2 151
Ġ2 395
on ne
on gor
on om
or at
or gui
ce s
ce ll
ce met
ĠG n
ĠG ia
ĠG ama
ĠG okh
ĠG asp
ent re
ite s
ite x
am d
Ġ3 29
Ġ3 38
Ġ3 69
Ġ3 21
Ġ3 31
Ġ3 97
Ġ3 43
Ġ3 95
Ġ3 82
Ġ3 005
se pi
ĠT o
ĠT ap
ĠCo d
ĠCo mple
ĠCo iff
ib ou
ĠDi aw
ĠDi kk
ĠDi annah
ac t
10 57
ĠH ers
ĠH ady
au s
Ġ4 55
Ġ4 40
Ġ4 39
Ġ4 37
Ġ4 69
Ġ4 44
Ġ4 87
Ġ4 238
Ġ4 335
Ġ4 187
Ġ4 334
op engu
ĠBou n
Ġ6 00
Ġ6 34
Ġ6 62
Ġ6 190
ĠK ere
at i
30 82
Ġ5 18
Ġ5 19
Ġ5 20
Ġ5 25
Ġ5 68
Ġ5 65
Ġ5 49
Ġ5 67
Ġ5 80
Ġ5 88
Ġ5 52
Ġ5 260
ĠEt ab
ĠDu n
Rue s
ĠO it
and a
ĠEx cell
it re
it as
Ġ9 654
Ġ9 587
ĠJ u
ĠJ alla
Ġ0 81
Ġ0 02
Ġ0 07
ro via
Ġ10 224
Ġ7 00
Ġ7 59
Ġ7 278
Ġ7 471
Ġ7 657
Ġ7 396
Ġ8 606
Ġ8 674
ĠDes cemet
ĠAm ilcar
ĠAss ist
pp ort
ĠTh iaw
ĠBour g
ĠLe ybar
ĠNd our
ob ile
99 76
ĠUn iite
ĠInd pendance
ĠPe tavin
ĠMb od
ĠRe beuss
ĠRe lais
ĠPres idence
Ġ20 9
Ġ20 15
Ġ20 82
ĠCar val
om ar
ĠDiou bo
ip onty
ĠPar sine
43 20
ĠSe ye
ĠSal le
ĠSal iou
ĠY e
ĠY ana
ra irie
Scat t
ĠCam ara
ĠCam ille
ĠW olle
Ġ30 1
Ġ30 6
Ġ30 7
Ġ30 9
Ġ30 79
Ġ19 3
ham iyou
ĠEc onom
Ġ40 8
Ġ40 30
ĠFerr aille
94 34
kh ane
ĠMer ina
ĠAr me
rac o
ĠNg ou
un aute
ĠPa v
ĠKar ak
ĠPark ing
Ġ50 53
oum ane
ĠMe che
ĠCh irurgie
ĠCh ouca
ai la
ĠBir ame
di enne
ve au
ve mbre
ĠPhar e
ĠGou ver
ĠBl u
ĠCas cal
ĠDr ame
ĠGr oupe
ĠRou hou
ĠLib rairie
oul ou
ĠGu i
ĠServ ices
ere my
ĠDro it
ĠDou dou
ĠDou gar
ĠNo vembre
ĠMat for
ĠBer n
ĠAime e
ĠKhad ija
An cien
ĠHac hamiyou
ĠEnface du
ĠDo d
Ġ105 00
ĠSc ore
ĠArt s
ĠFer rovia
ĠVer dienne
ĠDegau le
ĠDiar ra
ĠTechn ique
ĠNdi akhirate
ĠSap eurs
ĠNe ant
ĠCab ral
ĠCab rousse
ĠMoust y
ĠThio ce
ĠTelecom s
Re gus
ĠSip s
ĠKat y
ĠSid aty
ĠBamb ara
ĠBass ari
Camp us
Ġ135 00
ĠAtlant ic
ĠNab ou
ĠMach allah
ĠPed ago
ĠBara que
ĠMor ris
ĠFac ade
Gu inaw
ĠSon es
ĠRes ident
ĠCt ic
ĠIp g
olof ene
ĠGoel and
ĠDard ane
ĠChar les
akou ta
ĠNaf a
ĠFamil iale
ĠExp ert
ĠAmaz out
ĠProm ocap
ĠFe mm
ĠGond ole
ĠNdiar eme
ĠBata illon
Bamb ilor
Num ero
Ser vice
Term inus
ĠEqu ip
ĠMau n
ĠMus ulman
ĠBord ure
ĠHal ima
ĠAssain ie
ĠHyp ermarche
ĠFerdin and
ĠImmobil iere
Not to
ĠFin ance
ĠVie w
ĠGent ina
ĠSof raco
ĠSoci o
ĠToub akouta
ĠInt endance
ĠMarth in
ĠPediat rie
ĠTransit ion
ĠSuperieu re
ĠMissira h
ĠPrefe cture
Eta blissement
San galkam
Sant hiaba
Tri angle
cord e
jx g
ĠSuar l
ĠSain te
ĠNou vel
ĠMto a
ĠComple mentaire
opengu ine
ĠKere kou
ĠEtab lissement
ĠExcell ence
ĠJalla bert
ĠCarval ho
ĠChouca ir
ĠGouver nance
ĠCascal es
ĠMatfor ce
ĠFerrovia ire
3 47
3 60
4 32
4 238
4 335
4 684
5 34
6 00
7 278
7 471
7 606
9 476
A gora
B o
B aye
B aobab
C l
C as
D e
D eux
G orom
H amd
J a
K h
M iss
N ian
O u
O ie
P al
P ont
R n
S n
S u
S is
S or
S and
S ige
T ound
U fr
V o
c in
c ation
c us
d p
d io
e el
g ard
g ain
h lm
i am
i ane
j ari
k o
k he
k ia
l iberte
m n
m an
n am
n el
o e
o ce
p in
p her
p lex
r p
r ou
r ier
r ique
s pe
t p
t ou
u z
v ard
v ation
w e
w ar
y al
y land
ĠD ent
ĠD ic
ĠD err
ĠD sm
en c
ĠS i
ĠS ak
ĠS ite
ĠS ib
ĠS ig
ĠS us
ĠS ang
ĠS if
ĠS akh
ĠS amb
ĠS port
ĠS itue
ak har
ene lles
ue tte
te lle
te rie
ĠN c
ĠN t
ĠN eu
ĠN at
ĠN gu
ĠA w
ĠA res
ĠA pe
ĠA iss
ĠA ct
ĠA ya
ou ane
ou na
ou th
ĠR u
ĠR idien
ĠR oche
ĠR fm
ĠR yland
ĠC le
ĠC ss
ĠC ge
ĠC orn
ĠC iss
ĠC aur
ĠC nar
er y
ĠL u
ĠL ion
ĠL ed
ĠL ul
ĠL itt
ĠE v
ĠM i
ĠM u
ĠM ain
ĠM asse
ĠM amou
ĠP u
ĠP ent
ĠP erm
ĠP lles
ĠP openguine
an tec
ĠF ari
ĠF lam
Ġ1 260
Ġ1 109
Ġ1 688
Ġ1 992
la ire
la hi
ĠB d
ĠB ak
ĠB am
ĠB and
ĠB ra
ĠB vd
ĠB akou
eu m
ĠRue tolbiac
Ġ2 29
Ġ2 44
Ġ2 58
Ġ2 94
Ġ2 74
Ġ2 678
Ġ2 805
Ġ2 987
or a
ent en
ĠI t
ĠI am
ĠI mo
ĠI rd
ĠX a
Ġ3 16
Ġ3 40
Ġ3 39
Ġ3 85
Ġ3 75
Ġ3 44
Ġ3 98
Ġ3 42
Ġ3 94
Ġ3 83
Ġ3 71
Ġ3 84
Ġ3 72
Ġ3 008
se l
ĠT al
ĠT ann
ĠT ab
ĠT ote
ĠT alla
ib aly
ĠFa ind
ap se
ĠDi one
ĠDi vin
ĠDi aba
ac he
10 36
ĠH ang
ĠH arm
ad ies
Ġ4 12
Ġ4 15
Ġ4 18
Ġ4 16
Ġ4 17
Ġ4 30
Ġ4 20
Ġ4 27
Ġ4 28
Ġ4 65
Ġ4 35
Ġ4 70
Ġ4 21
Ġ4 32
Ġ4 31
Ġ4 90
Ġ4 58
Ġ4 57
Ġ4 51
Ġ4 86
Ġ4 96
Ġ4 81
Ġ4 121
Ġ4 331
ĠBou b
ĠBou lev
ĠBou bou
ĠBou gain
Ġ6 10
Ġ6 28
Ġ6 40
Ġ6 44
Ġ6 80
Ġ6 76
Ġ6 51
Ġ6 83
Ġ6 82
ĠK al
ĠK her
ĠK oun
at ier
30 25
Ġ5 29
Ġ5 23
Ġ5 55
Ġ5 39
Ġ5 50
Ġ5 58
Ġ5 92
Ġ5 81
Ġ5 000
Ġ5 492
ff ane
27 78
ĠEt at
int h
25 66
25 64
st on
id da
ĠDu plex
ba ye
33 99
ĠO ne
ĠPla zza
ĠMar co
ĠMar ket
ĠPo isson
ĠFo ir
ĠFo ret
ĠFo br
el ina
it anie
Ġ9 18
Ġ9 42
Ġ9 185
Ġ9 574
ne aire
ĠGue le
ĠJ cl
ĠJ amil
ĠJ ay
ĠJ eremy
Ġ0 45
Ġ0 63
Ġ0 153
Ġ0 01
Ġ0 04
Ġ0 06
ro c
ro l
ro s
Ġ10 31
Ġ7 13
Ġ7 79
Ġ7 31
Ġ7 63
Ġ7 84
Ġ7 135
Ġ7 558
Ġ8 38
Ġ8 35
Ġ8 08
Ġ8 117
Ġ8 785
Ġ8 086
gu iss
ĠAm inat
ĠSacre e
ĠTh ie
ĠTh ze
ĠZ ig
ol o
ĠEme t
our y
40 28
ence s
ĠHann be
ĠMed ico
ĠLe fe
ĠNd ou
34 44
ob ene
ass ou
im ane
im ouna
ĠMal and
oc im
ĠMb ane
ĠDj oloff
ĠSa b
sse yn
ĠRe g
Ġ15 30
ĠPres id
ĠSt at
Ġ20 27
Ġ20 68
be zy
ĠLou veau
om obile
gh eul
Ġ12 13
ut ion
ĠMo dou
ĠMo ham
ĠSen pa
ĠAl ignement
ĠSal on
ĠAb ien
ĠY av
ĠY elina
ra b
ĠEl i
ĠEl an
ĠEl lipse
ĠEl imane
ĠCa y
ĠCa ill
ĠTou t
ĠKh ary
ĠW al
ĠW ass
ĠPro che
Ġ30 82
ĠScat t
Ġ19 10
ĠEc ologie
Ġ40 5
Ġ40 17
Ġ40 47
ĠEs p
erk l
ona ise
io s
Ġ29 48
86 19
86 35
ĠNg s
ist ique
En face
Keur y
ĠLo g
ĠLo dj
300 3
Di ourbel
pecs i
Ġ50 1
Ġ50 2
Ġ50 4
ĠMa h
ĠMa he
ĠMa imouna
ni ado
ĠDial o
ĠIs ma
ĠIs oce
ĠNi akhar
ĠDk ar
iss o
105 61
ĠSand ial
di an
145 63
Med ecine
bass ade
ĠRo me
ĠRo os
ĠRo ser
ĠRo yal
ĠTe x
Ġ60 6
Ġ70 1
ĠMag uette
ĠCad dy
ĠHy und
Ġ100 1
Ġ56 26
Ġ58 68
Am it
okh o
Ġ86 31
ĠEspace s
ĠDa ba
ĠDa bo
ĠDa ya
ĠBa se
ĠBa ba
Ġ75 39
ĠMarch ant
ĠSu pport
ĠLebou gui
ĠEm er
Ca se
Ġ90 1
Ġ90 2
Ġ84 14
Ġ84 69
Ġ97 48
ĠJo jo
ĠSou venir
ĠBer ger
ĠLy bia
ĠPr ive
ĠCon corde
ĠBoul ga
ĠBoum ak
Ġ76 68
Ġ89 85
Ġ94 47
Ġ94 36
Ġ94 32
Ġ98 33
ĠTerr ou
Ġ95 69
Ġ105 64
ĠFrob enus
ĠFer y
ĠVer itas
ĠAt ti
ĠOu a
ĠOu sseyn
ĠIbrah im
ĠMaur itanie
ĠMin ame
Ġ106 19
Ġ108 00
ĠGo od
ĠGo orgui
ĠNdi olofene
ĠNdi obene
ĠSap eur
ĠNe h
ĠPhil ip
ĠHab itex
gue s
Pet ite
ĠOn g
ĠDar ling
ĠFor um
ĠThio kh
ĠHorizon s
ĠSeb ikhotane
ĠSeb iponty
Ġ210 00
ĠDen and
ĠCaille t
In ter
ong re
ĠNgal lele
ĠFila o
ĠSod iba
ĠBiscu terie
ĠSec teur
Comm unaute
ĠDeux ieme
ĠTran che
ĠMonte iro
ĠCham p
ĠLaz ars
ĠSous oum
ĠPrest ige
ĠBal neaire
ĠBuld ing
ĠJap onaise
ĠNde ffane
ĠExclus if
Ġ245 39
Ch ateau
ĠQu atre
ĠVill an
ĠGa ston
ĠHen ri
ĠAbatt oire
beu s
jo al
ĠRes id
Ġ200 00
ĠOff ic
ĠSoc iete
ĠTrans f
ĠPyrothe chn
ial es
ĠDard enelles
ĠXew eel
ĠFamil iales
ĠZe ina
ĠSop hie
ĠKo one
ĠMargue r
Ġ000 00
ĠFron tieres
ĠAg ric
ĠCoul ibaly
ĠLag ence
ĠPie ce
ĠBas ket
ĠSyp rom
ĠPyrothecn ie
ĠEssar ts
Terr ain
ĠSel im
ĠSco a
ĠAf ia
ĠRh ane
ĠCn cas
ĠCer f
ĠPul lman
ĠMount akha
ĠDioul oulou
ĠProfess eurs
ĠLyonna is
Gal erie
ĠAba sse
ĠEdu cation
anat oul
ĠFid ak
orat oire
ĠCod ens
ĠCoiff ure
ĠHers ent
ĠJu in
ĠAssist ance
ĠArme es
ĠPav illon
ĠDod ds
ĠDardane lles
Ja xaay
Tound oup
ĠSus ka
ĠSif av
ĠAres a
ĠCorn ich
ĠCnar t
ĠLion nes
ĠLed antec
ĠLul u
ĠPent ola
ĠTote m
ĠFaind herbe
ĠDivin ite
ĠKoun gheul
ĠForet s
ĠAminat a
ĠHannbe lair
ĠLefe vre
ĠSenpa ic
ĠAbien a
ĠYav uz
ĠIsoce le
ĠRoos velt
ĠHyund ai
ĠAtti jari
3 67
3 69
4 14
4 18
4 337
4 334
4 459
4 608
4 402
4 346
5 65
5 38
5 69
5 32
6 33
6 181
7 15
7 78
7 32
8 79
8 34
8 651
8 454
8 782
9 10
9 64
9 260
9 163
9 709
A l
A inoum
A pecsi
B c
B ay
C f
C p
C ham
C ote
C antine
D ak
D eni
D kr
E l
E me
E mb
G ouye
I nd
I mble
J ardin
K asnack
M o
M er
M aka
N gue
O r
P ole
P har
P assage
R ade
R isso
S ed
S oc
S oumbedioune
T a
T e
T ambacounda
V ill
V ille
X jxg
Y ene
Z fi
a ic
a ter
b ure
b us
b acar
b oratoire
c am
c ap
c teur
d it
d iou
d erne
e m
e w
e ye
e lle
e va
f oire
g b
g ou
g ique
g ation
g raphique
h a
h an
h laboul
i or
i mm
i ologie
k eu
k il
k okh
l d
l p
m u
m euble
m ed
m ence
n ie
n iaye
o y
o uest
o ologique
o vation
p ot
p rim
p onty
r on
r ies
r it
r as
r isson
s d
s ainies
s ra
t res
u p
v ir
w dou
w af
w ay
x y
y o
Ġ (
Ġ /
Ġ c
Ġ joal
ĠD l
ĠD ak
ĠD om
ĠD istr
ĠD oro
ĠD istrict
ar is
en ion
en ghor
en ant
ĠS our
ĠS iv
ĠS ham
ĠS aph
ĠS enten
al es
ak o
gal cam
te pa
ĠN y
ĠN ar
ĠN ive
ĠN iarry
ĠA er
ĠA lles
ĠA ur
ĠA lmad
ĠA im
ĠA ida
ĠA ab
ĠA jjar
ĠA venu
ĠA tepa
ou rossogui
ĠR us
ĠC in
ĠC all
ĠC ord
ĠC orm
ĠC ms
er che
ĠL is
ĠL on
ĠL op
ĠL uf
ĠL ia
ĠL gi
ĠL igne
ĠL ieu
ĠL gm
ĠE lles
ĠM ak
ĠM ic
ĠM ur
ĠM iro
ĠM obil
ĠM ines
ĠM omar
le gation
ĠP our
ĠP endance
ĠP na
ĠP ital
ĠF x
ĠF our
ĠF mp
ĠF eto
ĠF lex
in ies
Ġ1 100
Ġ1 175
Ġ1 187
Ġ1 181
Ġ1 364
Ġ1 976
Ġ1 446
Ġ1 356
Ġ1 983
la w
re e
re sso
ĠB au
ĠB ad
ĠB ik
ĠB ob
ĠB ao
ĠB err
ĠB oc
ĠB aud
is h
is en
ĠV ir
ĠV ente
eu keu
il o
il al
il eni
Ġ2 47
Ġ2 38
Ġ2 85
Ġ2 89
Ġ2 88
Ġ2 95
Ġ2 61
Ġ2 81
Ġ2 289
Ġ2 224
Ġ2 201
Ġ2 404
Ġ2 686
Ġ2 393
Ġ2 777
Ġ2 954
on el
or p
or y
or ong
ce pt
ĠG t
ĠG ol
am p
am at
am adou
ĠI l
ĠX d
Ġ3 18
Ġ3 19
Ġ3 17
Ġ3 23
Ġ3 65
Ġ3 60
Ġ3 34
Ġ3 70
Ġ3 89
Ġ3 53
Ġ3 96
Ġ3 370
ic i
ic an
ic ca
se d
ĠT ro
ĠT iv
ĠT io
ĠT un
ĠT aly
ĠT oro
ag na
ĠCo p
ĠCo sepi
ib ution
ap io
ĠDi at
ĠDi ass
ĠDi ong
ĠDi ery
ac oul
ann ing
10 50
10 31
10 227
10 134
10 554
10 503
ĠH an
ĠH on
ĠH ib
ĠH all
ĠH dp
ĠH ilal
12 22
15 89
ad ie
13 27
13 08
14 10
14 31
Ġ4 24
Ġ4 25
Ġ4 26
Ġ4 33
Ġ4 23
Ġ4 68
Ġ4 38
Ġ4 60
Ġ4 34
Ġ4 36
Ġ4 99
Ġ4 50
Ġ4 80
Ġ4 89
Ġ4 46
Ġ4 97
Ġ4 43
Ġ4 41
Ġ4 56
Ġ4 52
Ġ4 84
Ġ4 150
Ġ4 72
Ġ4 92
Ġ4 684
op a
op rt
ĠBou guiba
ĠBou do
ĠBou ki
18 20
Ġ6 12
Ġ6 15
Ġ6 24
Ġ6 33
Ġ6 55
Ġ6 11
Ġ6 45
Ġ6 78
Ġ6 75
Ġ6 66
Ġ6 50
Ġ6 89
Ġ6 59
Ġ6 71
Ġ6 86
Ġ6 93
Ġ6 086
ĠK or
ĠK ine
ĠK he
ĠK ang
ĠK orom
ĠK apio
at ar
at ologie
eur ie
eur igne
30 00
30 79
30 77
Ġ5 10
Ġ5 14
Ġ5 33
Ġ5 47
Ġ5 37
Ġ5 34
Ġ5 21
Ġ5 36
Ġ5 44
Ġ5 59
Ġ5 98
Ġ5 43
Ġ5 42
Ġ5 08
Ġ5 76
Ġ5 83
Ġ5 100
Ġ5 82
Ġ5 328
Ġ5 178
Ġ5 486
Ġ5 271
Ġ5 475
Ġ5 487
Ġ5 489
Ġ5 772
Ġ5 502
ff a
20 71
ĠRoute s
27 00
ĠEt rier
ĠEt icca
25 68
25 93
st r
st le
st an
id at
28 39
26 46
ĠLa boratoire
ba s
ĠO c
ĠO re
ĠO um
23 95
23 96
ĠMar ig
ĠMar ist
ĠMar aic
es ar
es se
ĠPo dor
ĠFo cus
ĠEtage s
el isque
el ique
me lles
it s
it u
Ġ9 10
Ġ9 16
Ġ9 54
Ġ9 73
Ġ9 159
ne ment
ĠEn s
ĠEn da
ĠGue dj
iste rie
ĠJ am
ĠJ av
Ġ0 32
Ġ0 86
Ġ0 52
ro me
ro om
Ġ10 12
Ġ10 16
Ġ10 19
Ġ10 22
Ġ10 97
Ġ10 227
Ġ10 156
Ġ10 750
Ġ10 753
Ġ10 774
ik aye
Ġ7 60
Ġ7 34
Ġ7 21
Ġ7 77
Ġ7 64
Ġ7 283
Ġ7 474
Ġ7 601
Ġ7 694
ir ak
ir ene
ĠExt ens
ĠExt enion
Ġ8 00
Ġ8 21
Ġ8 59
Ġ8 91
Ġ8 683
Ġ8 496
Ġ8 759
Ġ8 597
Ġ8 901
gu iers
ĠAm irak
ĠAss an
ĠAss ure
ch a
ch ite
ch eurs
ch erche
Avenue enue
ĠMba ba
ĠTh ia
ĠTh onghor
ĠTh ongor
ĠZ I
ĠZ am
ĠZ agal
ĠZ oologique
ol y
ol ier
40 23
40 85
40 74
48 10
ĠAn dr
49 51
45 78
ta ine
ta ya
ĠHann e
ĠAssainies u
Sacre e
ĠLe mbarcadere
ĠNd ar
ĠNd off
ĠNd ame
ĠNd io
nd a
tier s
85 10
85 27
ation ale
75 38
75 39
75 41
36 25
ge ment
99 34
99 99
ĠLam p
ĠLam bert
ĠLam baye
44 65
ĠMal adies
ĠChe f
ĠPyro tec
techn ique
ĠUn is
ĠPyrotechn i
ĠPe pin
46 35
ĠMb ene
ĠMb alo
ĠDj ou
ĠDj ida
ĠDj ambars
ĠDj olof
ĠSy n
ĠSa ba
88 65
ĠRe x
Ġ15 88
Ġ15 41
ĠEr nam
ĠXe ew
ĠSt ar
ĠSt ore
64 20
Ġ20 10
Ġ20 18
Ġ20 16
Ġ20 20
Ġ20 25
Ġ20 37
Ġ20 59
Ġ20 31
ĠCar ter
ĠMou se
Ġ11 13
Ġ14 21
Ġ13 49
be y
ci ens
Ġ12 300
ĠMo derne
ĠDiou rome
98 26
iar a
rie l
dou in
43 13
43 19
ĠSe in
ĠSe ign
ĠSe ffa
ĠSen ac
ĠSen gh
Ġ18 155
her s
95 46
ĠSal dia
ĠSal oum
ĠAb acar
ĠAb rit
87 69
ĠY a
ĠY one
ĠY enne
Ġ16 22
ĠCam b
ĠCa esar
ĠTou ta
ĠTou ts
ĠTou cou
ĠPey cou
ĠAut omobile
ĠLeop lo
ang o
ang elique
ĠW ater
ĠPro visoire
ant in
Ġ30 4
Ġ30 8
Ġ30 22
Ġ30 75
Ġ30 36
Ġ30 50
Ġ30 77
Ġ30 97
Ġ30 95
Ġ19 4
idou x
Ġ40 6
Ġ40 24
Ġ40 20
Ġ40 65
Ġ40 81
ĠDiam nadio
ĠDiam niado
94 12
94 35
ĠCap it
ĠCap ri
ĠRp ublique
kh okh
kh oura
Ġ25 2
ĠAr sm
Ġ26 12
Ġ26 19
if a
83 10
83 13
Ġ24 138
Ġ24 293
100 1
100 52
86 12
86 15
93 65
ĠNg one
84 49
Ġ23 190
Ġ23 231
ĠImp ort
Ġ21 14
En ceinte
ĠLo d
ĠLo gement
170 7
300 7
aine s
ĠAd j
Ġ27 60
Di ack
Ġ50 6
Ġ50 7
Ġ50 22
ĠSan s
ĠSan ta
110 5
ĠMa i
ĠMa ter
ĠMa eva
ĠMe m
ĠMe me
ĠMe tal
ĠMe khe
ĠVi la
ĠSar e
212 4
313 4
Ġ28 16
Ġ28 39
ĠWag ue
ĠCh ateau
218 8
230 4
215 1
hm ane
ĠNi anning
ĠBir am
106 28
106 37
ĠPas cal
ĠDarou l
iss ac
go ce
ĠSand iara
di ene
179 61
ĠGou y
Med ine
ĠRo ss
ĠRo sso
ĠRo xy
att an
ĠTe fess
Ġ60 1
Ġ60 2
Ġ60 4
Ġ70 3
ĠMag ic
ĠBi j
istr ation
et ti
og ie
So d
ĠBar bar
ĠKe lle
ĠKe ita
Th i
Th iaw
Ġ44 35
Ġ44 36
Ġ44 32
ĠCard io
ĠFah n
Ġ100 77
Ġ100 51
Ġ100 53
ĠGr an
ĠRou x
ĠLib ya
Ġ54 25
ĠIn f
ĠIn sa
ĠRd v
ĠAviation s
Ġ65 31
ĠFran co
ĠSam s
Ġ55 31
ign on
Ġ185 20
Ġ75 33
Ġ75 38
Ġ75 44
Ġ75 66
Ġ75 32
ĠBe ach
ĠMillion aire
ĠSu c
ĠOcean ographique
Ġ110 1
ĠEnf ant
ca se
Mame lle
Ġ90 44
ĠMat laboul
ĠMat hlaboul
Ġ80 18
ĠSou sse
ĠLy ser
ĠPr idoux
ĠThi aly
ĠThi eurigne
Ġ85 12
St op
ĠMan guiers
ĠTound ou
ĠCon s
ĠCon cept
ĠLob ath
ĠLob elisque
ĠMunicip ale
ĠMunicip aux
ĠGeographique s
ĠHac inthe
ĠHydrocar bure
ĠKle bert
ĠDo jo
adi or
Ġ69 88
Ġ105 44
ĠMourt alla
Ġ79 58
ĠQ tier
ĠQ atar
ĠAe lm
ay ane
ĠVer de
Darou khane
ĠAt s
ino ise
ĠOu kam
ĠOu ssou
ĠMin isterie
ĠCour a
ĠCour se
Ġ120 24
Pres du
aw fe
ĠArtis ana
ĠTr ileni
Ġ93 65
Ġ93 69
ĠPalm iers
ĠNe stle
ĠAbd allah
ĠAmbassad es
ĠPhil ipe
ĠPc ci
gue ye
od sen
ĠCl erc
ĠFon taine
ĠOm ar
ĠOn u
ĠKha ir
Mal ick
cu iterie
az ar
Re z
Se y
ĠConach ape
ĠGab ard
ĠGab riel
ĠSip rom
ĠJamba ar
qu ile
ĠAs c
ĠAs ie
ĠAs kia
Ġ212 11
ĠUrba ine
ĠCham bre
ĠMad ina
orm at
ĠGar onne
ĠBab ou
ĠDie z
ĠDie ye
ĠDie ze
Ġ219 27
ĠRahm a
ĠRahm ati
ĠSci ences
ĠBalla z
ĠJust in
oura hmane
Ar senal
Nd angane
Ni aga
Ni oro
Ni ague
ĠCor ona
ĠPn lp
ĠIp res
ĠSoc ocim
ĠFonc iere
ĠAcote du
ĠDd d
ĠAk ys
ĠCot on
ĠCot oa
ĠWoro f
ĠPrestation s
Dj ily
ĠNaf i
ĠMiss ion
ĠPt t
ĠBatte ries
Ġ240 45
Ġ259 62
ĠFaw oura
ĠExp resso
ĠAmit ies
ĠInter ieur
ĠPrem iere
ĠSop rime
ĠGond olier
ĠOp eration
ĠMargue ry
ĠNdia yene
ĠSav eur
ĠSav ana
ĠAbou bacar
ĠWar ar
ĠXcf n
ĠDp cs
ĠDer bezy
ĠReu beus
ĠBle u
ĠBle ue
ĠTra ite
ĠDiakh ate
ĠHar isson
ĠHar risson
ĠSyp ros
ĠKay ar
ĠKay ra
ĠPyrothecn ique
ĠEssar t
Bis cuiterie
Ma irie
Mbo de
Ndia wdou
Show room
Tivaou ne
Tivaou ane
ville es
ĠRuf ique
ĠEmb acadere
ĠBil guiss
ĠGand i
ĠKand ji
ĠAly ama
ĠChan tier
ĠChan ge
ĠIsm aila
ĠVerd ier
ĠMultimod al
ĠMultimod ale
Ne goce
Nimz ath
Sam u
Som one
fo sse
ĠDv f
ĠNep t
ĠAtel ier
ĠAig lon
ĠRen ovation
ĠLars ane
ĠDela fosse
ĠFb n
ĠGn agna
ĠGasp ard
ĠTo stan
ĠBoun kil
ĠMbod j
ĠEconom ie
ĠNgou de
ĠBern ard
ĠExpert ise
ĠFemm es
ĠMaun oury
ĠFinance s
Cl ub
Cas ino
Hamd al
Miss ion
Pal mar
Sand aga
Vo ie
pher es
rou sel
spe ction
we it
ĠDent al
ĠDerr i
ĠSak ina
ĠNeu ve
ĠAiss ainies
ĠRoche tte
ĠCle mence
ĠCiss okho
ĠEv angelique
ĠMamou ne
ĠFlam ants
ĠBak el
ĠBam bey
ĠIt ss
ĠImo front
ĠTal ibou
ĠHang ar
ĠHarm attan
ĠBoulev ar
ĠBougain villees
ĠKal ia
ĠEtat s
idda h
ĠFobr enus
roc red
rol ogie
ĠEmet teur
ĠStat ue
ĠMoham med
ĠCaill er
ĠMah wa
ĠRoser aie
ĠTex aco
ĠOusseyn ou
ĠNeh me
Inter ieur
ĠAbattoire s
ĠOffic iers
ĠMarguer ite
ĠAgric ole
ĠAttijari waf
Ainoum ady
Dak r
Emb acadere
Ind ependance
Mo squee
Phar macie
Sed hiou
Te chn
ĠDistr ibution
ĠSaph ir
ĠSenten ac
ĠNive au
ĠAur oroute
ĠCorm ier
ĠLis le
ĠLop old
ĠLia ison
ĠMic rocred
ĠMiro ir
ĠFmp o
ĠBau douin
ĠBik ila
ĠBao bas
ĠBoc ar
ĠTro is
ĠTio khna
ĠBoudo dy
ĠKang he
ĠKorom ack
ĠOum y
ĠMarig ot
ĠMaraic hers
ĠAssure urs
ĠZagal o
ĠPepin iere
ĠXeew el
ĠSeign eurie
ĠAbrit ant
ĠToucou leur
ĠLeoplo d
ĠWater front
ĠBarbar ie
Thiaw lene
ĠConcept ion
ĠOussou ye
awfe kh
ĠTrileni um
Ndiawdou ne
ĠBounkil ing
ĠClemence au
ĠAttijariwaf a
3 48
4 15
4 16
4 19
4 26
4 33
4 68
4 48
4 49
4 35
4 31
4 240
4 250
4 278
4 157
4 295
4 268
4 258
4 133
4 143
4 303
4 002
4 486
4 231
4 331
4 302
4 687
4 407
4 381
5 13
5 17
5 24
5 25
5 23
5 00
5 39
5 45
5 85
5 46
5 124
5 000
5 206
5 284
5 492
5 496
5 271
5 488
5 656
5 497
5 772
5 451
5 695
5 483
6 14
6 30
7 25
7 40
7 38
7 45
7 44
7 66
7 300
7 267
7 264
7 602
7 343
7 484
7 375
7 643
7 784
8 10
8 24
8 25
8 67
8 175
8 269
8 245
8 307
8 257
8 154
8 286
8 173
8 283
8 653
8 181
8 650
8 496
8 605
8 609
8 759
8 463
8 789
8 851
8 792
8 798
9 12
9 24
9 25
9 11
9 35
9 44
9 77
9 63
9 61
9 256
9 653
9 471
9 492
9 364
9 408
9 484
9 407
9 272
9 385
9 641
9 893
9 886
9 895
A d
A lles
A ll
B e
B en
B ache
B ongre
B ango
C er
C he
C amb
C ercle
C aus
D rand
D ia
D all
D aou
D oug
D erkl
E t
F m
F ac
F ort
F elix
G ar
G oumel
G eule
H y
H all
I cotaf
I lot
I sra
K ing
K abrousse
K irene
L ou
L amine
M s
M ag
M ba
N dou
N di
N ouvelles
N ationale
O lymp
P t
P ar
P ll
P iscine
P av
P onty
Q t
R p
R s
R tes
S c
S d
S en
S op
S af
S ica
S yn
S ortie
S itue
T ry
V nd
V ers
W ar
X c
Y enne
Y etti
Z I
a er
a eroport
b c
b our
b att
b oro
b ikotane
c b
c r
c ule
c na
c ault
c zy
c rue
d c
d en
d akar
d ies
d el
d ir
d ers
e in
e au
e ed
e ma
e cin
f p
f il
f laye
f orme
f ako
g as
g ary
g cap
h ima
h ran
h azar
h rologie
i ance
i om
i qu
j e
k oul
k ok
k way
l s
l er
l ib
l ique
l ux
m ont
m ang
m ca
m aud
m onde
m ousse
n kh
n ith
o ch
o ya
o asis
p d
p o
p ano
r ar
r il
r ist
r un
r igne
r ich
r ian
r ague
r issac
s f
s i
s y
s ic
s ap
s icap
s ole
s co
s dih
s aw
t in
t ire
t ing
t ra
t ile
u te
u la
u techn
u ges
u tes
u kok
v an
v illa
v dn
v as
v ers
v ill
v oa
w eul
x c
x f
x i
x p
y ar
y tavin
y nt
y monde
z i
z ar
Ġ *
Ġ ourossogui
ĠD c
ĠD or
ĠD ib
ĠD as
ĠD oye
ĠD oum
ĠD ande
ĠD yn
ĠD pt
ĠD erkl
ar ue
ar ane
en iou
en ko
ĠS h
ĠS v
ĠS ag
ĠS ac
ĠS ad
ĠS int
ĠS es
ĠS ane
ĠS ik
ĠS ch
ĠS pe
ĠS ident
ĠS mo
ĠS atre
ĠS ita
ĠS how
ĠS ms
ĠS pheres
al le
al am
al di
al ait
ak at
ak olda
akar y
ĠDakar ponty
gal a
gal andou
ue r
ue s
ue t
ue lle
te g
te forme
ĠN k
ĠN p
ĠN ol
ĠN ina
ĠN ge
ĠN oire
ĠN aw
ĠN assou
ĠA q
ĠA y
ĠA le
ĠA re
ĠA ce
ĠA me
ĠA pp
ĠA be
ĠA ra
ĠA lmas
ĠA xe
ĠA lam
ĠA gora
ĠA case
ou a
ou s
ou re
ou ff
ou cault
ĠR b
ĠR on
ĠR am
ĠR ann
ĠR st
ĠR ol
ĠR ation
ĠR ust
ĠR enne
ĠR ock
ĠR ma
ĠR adi
ĠR ipp
ĠR ri
ĠR acine
ĠC r
ĠC re
ĠC ic
ĠC ba
ĠC ta
ĠC im
ĠC ant
ĠC ct
ĠC apec
ĠC aus
ĠC anda
er ap
er ade
ĠL g
ĠL m
ĠL ot
ĠL el
ĠL ier
ĠL ub
ĠL un
ĠL ille
ĠL aut
ĠL aur
ĠL ierre
ĠL ong
ĠL angue
ĠE h
ĠE in
ĠE lle
ĠE ne
ĠE bou
ĠE aeroport
ĠE gcap
ĠM c
ĠM h
ĠM r
ĠM y
ĠM ent
ĠM ot
ĠM one
ĠM ond
ĠM ama
ĠM obert
ĠM ady
ĠP x
ĠP ak
ĠP on
ĠP ire
ĠP ik
ĠP arce
ĠP ord
ĠP aye
ĠP ers
ĠP ack
ĠP ere
ĠP iro
ĠP oupe
ĠP ouye
ĠP mu
an c
an s
an ence
an kh
an son
an ques
ĠDe gu
ĠDe ter
ĠDe co
ĠDe legation
ĠDe xp
ĠF en
ĠF il
ĠF ord
ĠF ix
ĠF orme
ĠF out
ĠF ala
ĠF ils
ĠF sf
ĠF oucault
in gu
in ique
in ces
Ġ1 160
Ġ1 159
Ġ1 138
Ġ1 255
Ġ1 235
Ġ1 248
Ġ1 306
Ġ1 276
Ġ1 203
Ġ1 273
Ġ1 172
Ġ1 201
Ġ1 486
Ġ1 470
Ġ1 670
Ġ1 292
Ġ1 472
Ġ1 390
Ġ1 342
Ġ1 642
Ġ1 893
Ġ1 987
Ġ1 887
la it
la to
la ser
re o
re x
re uil
re et
re telle
ĠB on
ĠB ine
ĠB res
ĠB ur
ĠB ol
ĠB oye
ĠB ond
ĠB ant
ĠB ert
ĠB aur
ĠB alaye
ĠB aila
ĠB ongre
ĠB itu
ĠB sic
ĠB akary
ĠB retelle
is er
ĠV ic
ĠV int
ĠV ital
ĠV ema
ĠV inces
eu de
il en
il ou
il dr
Ġ2 67
Ġ2 99
Ġ2 83
Ġ2 120
Ġ2 150
Ġ2 72
Ġ2 105
Ġ2 207
Ġ2 174
Ġ2 304
Ġ2 132
Ġ2 122
Ġ2 191
Ġ2 684
Ġ2 683
Ġ2 650
Ġ2 399
Ġ2 364
Ġ2 383
Ġ2 396
Ġ2 370
Ġ2 690
Ġ2 473
Ġ2 783
Ġ2 461
Ġ2 493
Ġ2 443
Ġ2 007
Ġ2 780
Ġ2 790
Ġ2 751
Ġ2 009
Ġ2 894
Ġ2 993
Ġ2 3003
or ate
ce lle
ce lles
ĠG h
ĠG le
ĠG se
ĠG ion
ĠG ard
ĠG erm
ĠG ir
ĠG ass
ĠG old
ĠG ere
ĠG land
ĠG arm
ĠG allo
ĠG aw
ĠG oll
ie lle
ie guene
ent h
ent as
ent if
ĠI r
ĠI er
ĠI ag
ĠI bou
ĠI den
ĠX ce
ĠX av
ĠX jxg
Ġ3 15
Ġ3 48
Ġ3 67
Ġ3 45
Ġ3 36
Ġ3 66
Ġ3 88
Ġ3 64
Ġ3 58
Ġ3 87
Ġ3 41
Ġ3 56
Ġ3 76
Ġ3 51
Ġ3 329
Ġ3 289
Ġ3 249
Ġ3 157
Ġ3 000
Ġ3 256
Ġ3 222
Ġ3 374
Ġ3 001
Ġ3 006
Ġ3 909
Ġ3 902
ic ulture
ic iel
se prim
se bikotane
oute rie
ot h
ot t
ot ion
ĠT i
ĠT m
ĠT oute
ĠT id
ĠT ir
ĠT ass
ĠT ond
ĠT ack
ĠT iment
ĠT ambac
ĠT ermes
ĠT yl
ĠT od
ĠT iya
ĠT sm
ĠT ata
ĠT ongor
ĠT itre
ĠT awfekh
ag n
ag ar
ag er
ĠCo dou
ĠCo laser
ĠCo seprim
ib u
ib ril
ĠFa ste
ĠFa cal
ĠFa alo
ĠFa br
ĠDi k
ĠDi o
ĠDi ak
ĠDi eu
ĠDi ame
ĠDi om
ĠDi ang
ĠDi agu
ĠDi anatoul
ac os
ann e
10 26
10 65
10 97
10 51
10 93
10 96
10 135
10 167
10 228
10 225
10 295
10 224
10 221
10 252
10 556
10 363
10 384
10 584
ĠH m
ĠH n
ĠH ir
ĠH ort
ĠH ob
ĠH aut
ĠH erne
ĠH amp
ĠH cr
ĠH ein
12 30
12 38
12 21
12 32
12 74
12 71
12 91
15 41
15 56
15 76
15 120
15 269
au de
ad is
ad es
13 15
13 60
13 78
13 31
13 98
13 56
13 73
13 53
14 30
14 00
14 45
14 35
14 56
14 74
14 86
14 72
14 114
Ġ4 13
Ġ4 22
Ġ4 47
Ġ4 11
Ġ4 49
Ġ4 79
Ġ4 66
Ġ4 64
Ġ4 98
Ġ4 63
Ġ4 62
Ġ4 94
Ġ4 91
Ġ4 112
Ġ4 325
Ġ4 116
Ġ4 214
Ġ4 320
Ġ4 217
Ġ4 323
Ġ4 178
Ġ4 108
Ġ4 198
Ġ4 295
Ġ4 285
Ġ4 337
Ġ4 296
Ġ4 336
Ġ4 243
Ġ4 459
Ġ4 339
Ġ4 601
Ġ4 608
Ġ4 241
Ġ4 394
Ġ4 407
Ġ4 382
Ġ4 202
Ġ4 375
Ġ4 357
Ġ4 388
Ġ4 807
op her
ss ion
ĠBou s
ĠBou t
ĠBou le
ĠBou gh
ĠBou gi
ĠBou diou
18 68
18 78
18 83
18 93
16 23
Ġ6 14
Ġ6 16
Ġ6 30
Ġ6 20
Ġ6 25
Ġ6 29
Ġ6 26
Ġ6 47
Ġ6 39
Ġ6 67
Ġ6 37
Ġ6 35
Ġ6 85
Ġ6 79
Ġ6 77
Ġ6 88
Ġ6 58
Ġ6 96
Ġ6 84
Ġ6 92
Ġ6 323
Ġ6 286
Ġ6 302
Ġ6 750
Ġ6 378
Ġ6 597
Ġ6 586
Ġ6 501
19 35
19 79
19 99
19 51
19 83
19 84
17 19
17 17
17 086
22 55
22 64
22 82
22 452
22 788
ĠK k
ĠK l
ĠK p
ĠK ane
ĠK us
ĠK amb
ĠK asse
ĠK ath
ĠK asnack
ĠK adior
30 75
30 63
30 94
30 93
30 96
30 170
30 81
ion e
ion o
ion nel
lm ane
ĠImmeuble s
Ġ5 15
Ġ5 13
Ġ5 40
Ġ5 48
Ġ5 35
Ġ5 99
Ġ5 89
Ġ5 31
Ġ5 46
Ġ5 90
Ġ5 57
Ġ5 63
Ġ5 95
Ġ5 62
Ġ5 41
Ġ5 96
Ġ5 119
Ġ5 310
Ġ5 312
Ġ5 137
Ġ5 249
Ġ5 295
Ġ5 268
Ġ5 339
Ġ5 485
Ġ5 496
Ġ5 680
Ġ5 394
Ġ5 452
Ġ5 691
Ġ5 342
Ġ5 757
Ġ5 503
Ġ5 641
Ġ5 004
Ġ5 361
Ġ5 986
lle ders
ff e
ff ene
ff isque
20 24
20 65
20 31
20 52
20 91
ĠRoute de
27 38
27 70
27 50
27 97
27 08
27 71
ĠEt ag
ĠEt ape
ĠEt pd
25 34
25 91
25 658
ard ip
id ia
id ge
ĠCite c
ĠCite e
29 26
29 89
29 32
29 87
28 16
28 33
28 62
28 51
28 92
26 10
26 28
26 37
26 90
26 71
26 754
ĠDu ret
ĠDu vre
ĠLa bo
ĠLa erap
33 98
33 95
33 86
ĠO d
ĠO me
ĠO rab
ĠO graphique
ine a
ine e
he s
levard ou
Cite e
23 11
23 61
ĠMar in
ĠMar ice
ĠPo le
ĠPo ind
ĠFo od
ĠU d
ĠU om
ĠU sa
ĠU vre
ĠU gb
ĠLiberte s
it ologie
it ish
Ġ9 15
Ġ9 24
Ġ9 26
Ġ9 23
Ġ9 00
Ġ9 55
Ġ9 21
Ġ9 57
Ġ9 63
Ġ9 91
Ġ9 320
Ġ9 314
Ġ9 255
Ġ9 224
Ġ9 226
Ġ9 364
Ġ9 405
Ġ9 550
Ġ9 794
Ġ9 982
Ġ9 1410
Ġ9 9999
ne lle
ne st
ĠEn tension
ĠEn vir
ĠGue dia
ĠJ i
ĠJ ur
ĠJ ala
ĠJ uma
ĠJ ardip
Ġ0 29
Ġ0 66
Ġ0 64
Ġ0 57
Ġ0 42
Ġ0 56
Ġ0 08
Ġ0 83
Ġ0 71
Ġ0 03
ro ss
Ġ10 15
Ġ10 17
Ġ10 29
Ġ10 23
Ġ10 00
Ġ10 40
Ġ10 39
Ġ10 37
Ġ10 70
Ġ10 89
Ġ10 32
Ġ10 62
Ġ10 83
Ġ10 93
Ġ10 264
Ġ10 558
Ġ10 399
Ġ10 656
Ġ10 491
Ġ10 551
Ġ10 386
Ġ10 584
ik y
Ġ7 18
Ġ7 24
Ġ7 23
Ġ7 55
Ġ7 35
Ġ7 78
Ġ7 50
Ġ7 98
Ġ7 87
Ġ7 62
Ġ7 54
Ġ7 83
Ġ7 279
Ġ7 237
Ġ7 602
Ġ7 603
Ġ7 484
Ġ7 490
Ġ7 359
Ġ7 677
Ġ7 709
Ġ7 341
Ġ7 084
ir am
ir ot
ir at
Ġ8 15
Ġ8 22
Ġ8 11
Ġ8 48
Ġ8 37
Ġ8 69
Ġ8 70
Ġ8 99
Ġ8 32
Ġ8 77
Ġ8 31
Ġ8 88
Ġ8 90
Ġ8 43
Ġ8 95
Ġ8 62
Ġ8 42
Ġ8 61
Ġ8 54
Ġ8 52
Ġ8 170
Ġ8 240
Ġ8 214
Ġ8 315
Ġ8 324
Ġ8 316
Ġ8 298
Ġ8 209
Ġ8 305
Ġ8 181
Ġ8 459
Ġ8 650
Ġ8 399
Ġ8 608
Ġ8 395
Ġ8 559
Ġ8 781
Ġ8 508
res se
gu l
ĠAm i
ĠAm ad
ĠAm ina
ĠAss sainies
ĠAss inies
ĠAss aines
ur a
ch eur
ch ance
ch allah
ĠExtension s
ia s
ĠRufisque est
ĠTh er
ĠTh iou
ĠZ c
ĠZ on
ĠZ inc
ĠZ igu
ĠZ akat
ain er
55 21
47 19
47 53
47 17961
ĠGrand es
68 25
68 00
68 70
68 56
40 12
40 15
40 17
40 24
40 26
40 58
40 83
11 12
11 19
11 11
48 98
48 04
38 48
38 21
ĠAn car
ĠAn cin
ĠAn ciens
39 14
39 66
67 18
37 36
45 15
45 40
ĠSicap liberte
ique s
60 15
60 60
69 07
ta v
ta ble
ĠMed oune
ĠMed iat
ĠMed ecin
ĠBour gu
ĠSo eur
ĠSo gui
ĠSo bo
ĠSo met
ĠSo sepi
ĠLe x
ĠLe glise
ĠNgor oasis
ĠNd ack
ĠNd eng
ĠNd aw
ĠNd angane
ĠNd amat
ĠNd ayane
ĠNd ieguene
ĠOuest foire
all ing
78 64
ord s
as alam
as itologie
nd iane
85 67
85 01
79 15
79 98
34 34
34 36
ob y
ob ap
75 12
75 13
75 33
75 44
75 07
ass ere
21 17
36 10
36 43
99 27
99 60
99 85
99 87
99 94
ĠLam a
ĠLam bassade
ĠLam antin
44 13
44 26
66 22
50 82
ĠBis sap
89 39
ud e
ĠUn ice
32 11
59 60
59 61
59 73
77 34
77 36
mp oul
ĠInd ep
ĠPe cheur
aye mb
46 20
ĠMb ou
ĠMb oul
ĠMb eukeu
ĠMb ankh
ĠMb oth
ĠDj ara
ĠDj igo
ĠDj annah
ĠDj eed
ĠDj ibril
ĠDj iky
ĠSy rie
ĠCheikh oul
ĠSa wa
ĠSa ver
sse mblee
88 22
ĠRe cherche
ĠRe crue
ĠRe ymonde
90 44
90 71
Ġ15 68
Ġ15 44
Ġ15 131
Ġ15 754
Ġ15 4717961
ĠPres se
ĠEr nest
ĠXe atre
ĠBel gique
une or
ĠSt reet
64 38
64 37
ber ge
Ġ20 17
Ġ20 24
Ġ20 57
Ġ20 91
Ġ20 796
ĠCar go
ĠCar bures
ĠCar rousse
ĠCar rousel
Ġ11 19
Ġ11 100
Ġ14 11
Ġ13 10
Ġ13 12
Ġ13 14
Ġ13 22
Ġ13 55
Ġ13 158
Ġ13 162
ade tte
ĠCol onel
gh a
ĠMo s
ĠMo sque
ĠDiou bel
ĠDiou ma
ĠDiou rom
ĠDiou nkh
98 20
98 65
97 34
dou man
ĠPar ouff
ĠPar asitologie
ĠThies ouest
Bou tique
43 14
43 24
43 25
ĠSe m
ĠSe lle
ĠSe ga
ĠSe gue
ĠSe hran
ĠSen dou
ĠAl u
ĠAl la
ĠAl hazar
Ġ18 76
Ġ18 254
95 11
ĠJe ff
ĠSal ane
ĠSal ve
ĠAb laye
ĠAb ords
87 66
ĠY s
ĠY ann
ĠY eum
ĠY mca
ĠY ukok
ra hima
Ġ17 10
Ġ17 18
Ġ17 19
Ġ17 00
Ġ17 000
Ġ17 232
Ġ17 491
Ġ17 344
ĠMass our
ĠMass aer
ig ade
42 10
ck he
Ġ16 13
Ġ16 68
Ġ16 39
Ġ16 45
Ġ16 106
Ġ16 000
Ġ16 174
Ġ16 366
ĠEl iz
ĠCam bar
ĠCam pement
ĠCa en
ĠCa bou
ĠPey rissac
ĠPey tav
us ine
ĠKh and
ĠW ill
ĠW olof
ĠW ayemb
ĠSed ard
ĠSed ina
ĠPro du
ĠGe ss
ĠGe og
ĠGe oe
ĠGe lato
Ġ30 29
Ġ30 11
Ġ30 69
Ġ30 70
Ġ30 21
Ġ30 99
Ġ30 74
Ġ30 86
Ġ30 93
Cent enaire
ill ipe
Ġ19 16
Ġ19 79
Ġ19 34
Ġ19 63
iv ite
iv es
iv ites
ĠGal le
ĠGal adou
ĠGal gui
ĠGal ande
ĠEc o
ĠEc opole
ĠEc ologique
Ġ40 7
Ġ40 15
Ġ40 27
Ġ40 26
Ġ40 45
Ġ40 50
ĠEs van
ĠDiam il
ĠDiam ond
54 33
94 36
bo ot
io ce
kh ar
73 11
ĠBuild er
ĠVinc en
Ġ25 15
Ġ25 67
Ġ25 77
Ġ25 43
Ġ25 111
76 12
76 39
ĠAz ar
ĠAz har
Ġ29 30
Ġ29 27
Ġ29 23
Ġ29 77
Ġ29 602
Ġ29 783
Ġ29 462
74 28
ĠAr ene
ĠAr do
ĠAr chite
ĠGene r
51 16
ĠSer ign
ĠSer han
Ġ26 30
Ġ26 00
Ġ26 35
Ġ26 36
53 28
if ort
83 23
Ġ24 28
Ġ24 37
Ġ24 66
100 73
100 51
100 53
86 24
86 28
86 68
86 34
52 14
93 20
96 48
iou n
Grand yoff
ĠNg nith
84 12
84 65
84 66
Ġ23 30
140 2
fr ic
igu ene
igu ilen
130 6
un g
un us
190 3
ĠPresident iel
ĠBr gm
ĠBr inoise
ĠBr uges
ĠBr idge
ĠBr itish
ĠBr igade
160 5
ĠLo me
ĠLo cean
ĠLo euf
ĠLo voa
170 1
170 16
ĠKar a
300 6
ĠAd ji
ĠAd anson
ĠAd resse
Ġ27 16
Ġ27 19
Ġ27 27
Ġ27 65
Ġ27 78
Ġ27 44
ĠRa f
ĠRa w
ĠRa an
81 12
Ġ50 63
Ġ50 72
ĠSan agal
ĠSan galcam
oum adi
ien g
200 7
200 56
110 61
lin ik
ĠMa tern
ĠMa yo
ĠMa iguilen
ĠMe tres
ĠMe tiers
ĠMe czy
117 9
112 9
113 6
ĠSar an
ĠSar ault
ĠAv s
118 33
240 1
240 3
240 9
290 7
220 6
220 7
Ġ28 10
Ġ28 29
Ġ28 103
116 8
ĠNdiaye s
ĠBatiment s
ĠCh ance
ĠCh asse
ĠCh ris
ĠCh rist
ĠCh ildr
218 3
230 1
230 18
Qu atier
210 8
210 14
217 4
324 5
280 5
280 7
Ġ45 22
Ġ45 308
233 9
hm iyou
ĠIs com
ĠNi agu
ĠNi omb
ĠNi ague
amb ar
amb our
amb ara
ĠBir go
ĠThe atre
ĠLiber ta
ĠDarou kh
Ġ33 48
155 75
105 66
ct ive
ĠGom ba
ĠFat y
ĠFat ima
ĠFat ma
Gue t
ve gard
145 42
ĠGou dir
125 13
125 00
Ġ38 28
ĠHotel s
104 20
104 21
185 24
ĠRo k
ĠTe m
ĠTe le
ĠTe ze
169 70
Ġ60 9
Ġ70 5
Ġ70 9
ĠMag ino
ĠMag az
228 00
338 64
ĠBl ue
ĠFad a
ĠHu nd
147 11
237 42
ĠBar ack
ĠBar aka
ĠBar ka
ĠBar alait
ĠVict oire
ĠKe bab
Th ioce
ĠCas ah
ĠCas iono
Ġ44 69
ĠLay al
ĠLay enn
ĠAhm ed
Ġ100 78
Ġ100 36
Ġ100 57
ĠGr oup
aut aire
256 15
ĠDkr rp
af in
ĠRou tier
ĠLib re
ĠLib ass
oul ick
ĠGu enth
ĠGu inee
Ġ54 10
Ġ54 26
Ġ54 11
Ġ47 20
Ġ47 200
Ġ47 155
Ġ56 15
ĠIn fe
ĠIn spection
ĠIn teg
Diam nadio
Am bassade
ĠJeu ne
Ġ86 25
Ġ86 34
ĠMart yr
Cam ber
dre ss
Ġ65 68
ĠDa vis
ĠDa ffaires
ĠDa ffe
ĠPer fe
ĠDou ble
ĠDou ala
ĠBa ol
ĠBa ida
ĠBa obap
Ġ185 8
Ġ185 21
Ġ66 55
Central e
ĠBe st
ĠBe aux
ĠAsse a
ĠAsse mb
ĠAsse mble
ĠPet hio
ĠDalifort fo
ĠNimz at
ĠEm g
ĠEm bass
ĠEm ase
Ġ99 27
Ġ99 34
Ca isse
ĠNo flaye
ĠNo irot
Ġ90 4
Ġ90 6
Ġ90 9
Ġ90 24
dro me
dro base
Ġ84 12
Ġ84 00
Ġ84 48
Ġ80 2
Ġ80 5
Ġ80 6
Ġ80 67
ĠCal ao
ĠCal met
Ġ97 42
Ġ77 30
Ġ77 45
Ġ77 60
Ġ77 36
ĠJo e
ĠJo kk
ĠSou me
ĠSou ley
Ġ96 15
co eur
ĠLy s
ĠPr ades
ĠIb adou
vel ier
ĠColle ctive
ĠDior ga
Ġ85 85
Ġ85 99
ĠMan challah
ĠAdmin istration
ĠBureau x
ĠKa h
ĠKa ira
ĠKa olo
ĠRose gard
Ġ104 20
Ġ104 21
Ġ107 28
onde lles
ĠMon aco
ĠHac ynt
ĠHac hmiyou
ĠBoul vard
Tou t
ĠBo is
ĠBo de
ĠBo yer
ĠBo dy
ĠBo dian
ĠBo sco
ĠTot ale
Ġ76 48
Ġ76 39
Ġ76 36
Ġ89 38
Ġ89 60
Ġ94 60
ĠPh c
ĠPh ys
ĠPh illipe
Ġ98 67
Ġ74 60
Ġ87 69
Ġ87 75
Ġ87 63
vis ion
ank e
Ġ125 22
Ġ125 24
tern ite
Ġ115 63
Ġ69 35
ĠOlymp ic
Ġ95 68
Ġ105 60
Ġ105 62
ĠSc ac
ĠSc orp
ĠCase bi
ĠQ t
ĠCen nt
ĠFer and
ĠFer ree
Ġ145 7
ĠVer ger
ĠImm eule
ĠYalla h
ĠAfrica tel
Mb ack
Mb oro
ĠAt taya
ĠAinoum ane
Ġ88 77
ĠAdministrat ive
ĠDem oby
ĠFay al
ath ie
ĠLat ifa
ĠMin am
ĠMin iere
ĠMin utes
Ġ106 23
Ġ106 00
Ġ108 14
Ġ108 17
ĠEly se
ĠBu lleders
ĠMari us
ĠAll iance
ĠElect rique
Po dor
Pres quile
ĠTechn ologie
ĠPyr utechn
va il
yl or
ĠSk ate
ĠTerm inal
ĠNdi ambour
ĠMaz ars
ĠPalm er
ĠThiandou me
ĠNe ma
oun ka
ĠAbd ourahmane
ola bs
ĠRan khar
ĠLss enghor
lam ine
ĠTam aris
ĠEnseign ant
ĠCd ao
ĠMont reuil
ĠOuagou niaye
ĠRanr ar
ĠAc ade
ĠTour isme
ĠKha iser
ĠDav ignon
av ouane
cu laire
ĠDar our
ĠFor ces
ĠVal dio
ĠPost chance
Ġ123 45
ĠOr bus
ĠMam oulick
Ġ114 36
ĠGont an
ĠLah i
Bureau x
ĠPeul gha
Ġ222 66
Ġ222 77
Ġ222 52
zz erade
ĠJa velier
ĠNdeu gane
Entre pot
Ġ116 15
Ġ116 93
ĠDiamb ar
ĠAfric ain
ĠSid f
ĠSid y
ĠBamb ou
ĠCoop eration
ĠSod id
ĠCommun ue
ĠCommun autaire
ĠSaf ari
Cab rousse
ĠPat ios
ĠPat isen
Ġ168 00
Ġ168 61
ĠBag ore
ĠBass iro
ĠNdiou ga
Ġ207 45
ĠElh adj
ĠLapr ine
ĠCf pt
ĠMad rague
ĠMad ieng
ĠLaz ard
ĠEd en
ĠPot in
ĠKer eto
ĠKenn y
ĠNab y
ĠPed est
Ġ149 47
Ġ219 26
Ġ245 08
Ġ300 34
ĠCheick h
ĠMbo diene
ĠMaguil en
Ch u
Ch ras
ĠQu at
ĠQu atier
ĠSci entif
ĠLan cienne
ĠLan cien
ĠMor is
ĠMor celle
Ġ180 10
Ġ255 82
ĠPoly technique
ĠAdministra ion
Ar oport
Ar ret
Gu entaba
Nd al
Nd io
Nd orong
Ni acoul
ĠDal oua
ĠSd m
ĠSd ar
ĠSon y
ĠSon adis
ĠNa ve
ĠCor a
ĠCor ps
ĠCiv il
ĠMand ione
ĠMut uelle
ĠPn al
ĠPn eu
Ġ290 15
Ġ284 14
ĠMarn ame
Seb ikhotane
ĠMessag erie
ris es
ĠAh ad
ĠAh zar
ĠAk f
ĠAk us
ĠChar ite
ĠEss ence
ĠMil an
Ġ119 00
Ġ217 84
Ġ234 00
imat ou
ĠSuper ieur
Dj iddah
ĠAero drome
ĠCro is
ĠPl ane
ĠPel ican
ĠFal ou
Ġ240 16
ĠIm odsen
Ġ330 00
ĠHou se
ĠAmaz oute
ĠAmaz outh
ĠZe in
ĠProm otion
ĠInter ne
ĠInter im
ĠPolyc linik
ĠCher cheurs
ĠFe ue
Ġ280 63
ĠKo weit
ĠOp ce
ĠOp old
ĠEnd s
ĠNdin gala
ĠNdia ssane
ĠNdia yenne
ĠNdiar e
ĠSav eurs
ĠFron te
ĠFron tiere
ĠAbou levardou
ĠWar ang
ĠXcf ra
ĠDepartement al
Bamb ylor
ĠDer iere
ĠAlm in
ĠAlm ah
ĠAlm enko
ĠReu bess
ĠCont ainer
ĠCoul ang
ĠLag une
ĠEqu ipe
ĠMau sole
ĠPie d
ĠGs h
Ġ326 00
ĠTra vail
ĠDiakh ao
ĠFerdin ant
ĠImmobil ier
Ma ison
Mbo d
Ndia ye
Pe tersen
Pe ytavin
ĠSco laire
ĠNs ia
ĠAth ie
ĠAth ena
ĠAyn ina
ĠAyn oumadi
ĠCer amique
ĠEmb run
ĠBil ingue
Ġ297 19
ĠXb laise
ĠComp tes
ĠComp table
ĠMaris es
ĠRegal a
ĠMount aga
ĠDioul ikaye
ĠProfess ionnel
ĠNgue kokh
ĠEntrep ots
ĠEntrep rises
ĠVerd ure
ĠLyonna ise
Ap res
Ap ix
Nimz att
ĠSau vegard
ĠSol s
ĠSim al
ĠNeur ologie
ĠNeur och
ĠNep hrologie
ĠAtel iers
ĠAig le
ĠCou leur
ĠLars enal
ĠMac ina
ĠDec ent
ĠBakh dad
ĠViv ier
ĠViv iers
onne ment
ĠGasp ar
Ġ520 24
ĠDun ya
ĠYe mbeul
ĠEconom ique
ĠNgou douman
ĠBern adette
ĠPedago gues
ĠResident ielle
ĠFemm e
ĠMaun ory
Kh ouma
Kh ourounar
Nian i
Nian ing
Ou rossogui
Su ite
ĠDic opa
enc iel
ĠSib eau
ĠSang omar
ĠSakh o
ĠSakh ir
ĠSport if
ĠNt le
ĠNat angue
ĠNgu ith
ĠNgu inth
ĠApe c
ĠApe xi
ĠAct ivites
ĠRu ffisque
ĠLitt le
ĠLitt or
ĠMu see
ĠPerm anence
ĠBand y
ĠBra zza
ĠBra zzerade
ĠTann e
ĠTab ara
Ġ457 40
ĠBoub es
ĠBoub akh
inth ia
ĠFoir en
ĠNdou khoura
ĠSab lux
ĠReg ina
ĠPresid end
ĠPresid enciel
ĠCay re
ĠCay or
ĠWal kway
ĠWass ya
ĠEsp oir
ĠLog istique
ĠLog iciel
Amit i
ĠEmer gence
ĠEmer aude
ĠThiokh o
ĠTransf ret
ĠPyrothechn ie
ĠPyrothechn ique
Bc cd
Cf tp
Cham bre
Mer idien
Ta iba
Vill an
sd alifa
Ġc p
ĠDl ily
ĠAer oprt
ĠLieu dit
ĠMak k
ĠFour ma
ĠBad ara
ĠBob ba
ĠBerr anger
ĠBaud in
ĠVir maud
Ġ285 60
Ġ353 30
ĠTiv avouane
ĠTun is
ĠCop hes
ĠDiat ta
ĠDiong arane
ĠHon ore
ĠKor entas
ĠKhe weul
ĠEns up
ĠJam m
ĠAssan ies
ĠNdoff ene
ĠPyrotec nie
ĠPyrotechni q
ĠDjou dj
ĠDjida h
ĠSyn apse
ĠPeycou ck
ĠCapit aine
ĠLod ge
ĠMater nelle
ĠBij outerie
Sod idat
ĠCardio vas
ĠInf ormat
ĠSams ung
ĠSuc c
ĠCons ult
ĠAelm os
ĠMinisterie lles
Sey dina
ĠAsc ena
ĠCoton ou
ĠOperation s
ĠXcfn oumane
ĠTraite ment
ĠKayra ba
ĠNept unus
Hamdal laye
Palmar in
ĠMohammed ia
Techn opole
Bache s
Cer f
Dall ifort
Doug ar
Et oile
Fac ulte
Gar age
Hy drobase
Mag asin
Olymp ique
Sop rime
Syn apse
Try pano
War ang
fil i
ĠDib iterie
ĠDas ie
ĠDyn amique
eniou s
ĠSag am
ĠSes am
ĠSik ilo
ĠSatre c
ĠNge law
ĠNaw im
ĠAce p
ĠAme th
ĠAlam dies
ĠRon kh
ĠRol land
ĠRust y
ĠRadi ologie
ĠCant ara
ĠLier te
ĠLub ke
ĠLun ite
ĠEne a
ĠMone ger
ĠMady ana
ĠPon it
ĠPord udal
ĠPiro gues
ĠPoupe tte
ĠDeter re
ĠFil fili
ĠFout iyou
ĠFala ise
ĠBine ta
ĠBres il
ĠBol ong
ĠBitu me
ĠVital ait
ĠGion al
ĠGard en
ĠGerm ain
ĠGir aud
ĠGere ca
ĠGarm y
ĠGaw lo
ĠGoll ieni
ĠXav ier
ĠTack o
ĠTod d
ĠFaste f
ĠDiame guene
ĠDiang ne
ĠDiagu ily
ĠHir ondelles
ĠHort iculture
ĠHob allah
ĠHerne st
ĠHamp ate
ĠHein rich
ĠBough iba
ĠBoudiou ck
ĠKus um
ĠKath ior
ĠLabo rex
ĠLaerap ort
ĠOme ga
ĠOrab ank
ĠUsa id
ĠEnvir onnement
ĠJala bert
ĠMediat ure
ĠSobo a
ĠSomet ra
ĠNdamat ou
assere lle
ĠUnice f
ĠMbeukeu nda
ĠMbankh eude
ĠDjara ff
ĠDjeed ah
ĠCarrousse l
ĠParouff el
ĠSegue le
ĠYukok ai
ĠEliz abeth
ĠCambar ene
ĠWill iam
ĠGeoe ges
ĠArchite cture
ĠChris ta
ĠChrist opher
ĠChildr en
ĠGoudir y
ĠMagaz in
ĠCasah ous
ĠLayenn en
ĠInfe ct
ĠDalifortfo irail
ĠEmase s
ĠJokk olabs
ĠSouley mane
ĠKaolo ack
ĠRosegard en
ĠHacynt he
ĠPhys iologie
ĠScorp ion
ĠCennt enaire
ĠPyrutechn ie
ĠValdio dio
ĠPedest rian
Chras m
ĠScientif ique
ĠMorcelle ment
ĠMausole e
ĠSauvegard e
ĠNeuroch irurgie
ĠLogiciel s
ĠCardiovas culaire
