{"[CLS]":0,"[pad]":1,"[SEP]":2,"[unk]":3,"[mask]":4,"!":5,"\"":6,"#":7,"$":8,"%":9,"&":10,"'":11,"(":12,")":13,"*":14,"+":15,",":16,"-":17,".":18,"/":19,"0":20,"1":21,"2":22,"3":23,"4":24,"5":25,"6":26,"7":27,"8":28,"9":29,":":30,";":31,"<":32,"=":33,">":34,"?":35,"@":36,"A":37,"B":38,"C":39,"D":40,"E":41,"F":42,"G":43,"H":44,"I":45,"J":46,"K":47,"L":48,"M":49,"N":50,"O":51,"P":52,"Q":53,"R":54,"S":55,"T":56,"U":57,"V":58,"W":59,"X":60,"Y":61,"Z":62,"[":63,"\\":64,"]":65,"^":66,"_":67,"`":68,"a":69,"b":70,"c":71,"d":72,"e":73,"f":74,"g":75,"h":76,"i":77,"j":78,"k":79,"l":80,"m":81,"n":82,"o":83,"p":84,"q":85,"r":86,"s":87,"t":88,"u":89,"v":90,"w":91,"x":92,"y":93,"z":94,"{":95,"|":96,"}":97,"~":98,"¡":99,"¢":100,"£":101,"¤":102,"¥":103,"¦":104,"§":105,"¨":106,"©":107,"ª":108,"«":109,"¬":110,"®":111,"¯":112,"°":113,"±":114,"²":115,"³":116,"´":117,"µ":118,"¶":119,"·":120,"¸":121,"¹":122,"º":123,"»":124,"¼":125,"½":126,"¾":127,"¿":128,"À":129,"Á":130,"Â":131,"Ã":132,"Ä":133,"Å":134,"Æ":135,"Ç":136,"È":137,"É":138,"Ê":139,"Ë":140,"Ì":141,"Í":142,"Î":143,"Ï":144,"Ð":145,"Ñ":146,"Ò":147,"Ó":148,"Ô":149,"Õ":150,"Ö":151,"×":152,"Ø":153,"Ù":154,"Ú":155,"Û":156,"Ü":157,"Ý":158,"Þ":159,"ß":160,"à":161,"á":162,"â":163,"ã":164,"ä":165,"å":166,"æ":167,"ç":168,"è":169,"é":170,"ê":171,"ë":172,"ì":173,"í":174,"î":175,"ï":176,"ð":177,"ñ":178,"ò":179,"ó":180,"ô":181,"õ":182,"ö":183,"÷":184,"ø":185,"ù":186,"ú":187,"û":188,"ü":189,"ý":190,"þ":191,"ÿ":192,"Ā":193,"ā":194,"Ă":195,"ă":196,"Ą":197,"ą":198,"Ć":199,"ć":200,"Ĉ":201,"ĉ":202,"Ċ":203,"ċ":204,"Č":205,"č":206,"Ď":207,"ď":208,"Đ":209,"đ":210,"Ē":211,"ē":212,"Ĕ":213,"ĕ":214,"Ė":215,"ė":216,"Ę":217,"ę":218,"Ě":219,"ě":220,"Ĝ":221,"ĝ":222,"Ğ":223,"ğ":224,"Ġ":225,"ġ":226,"Ģ":227,"ģ":228,"Ĥ":229,"ĥ":230,"Ħ":231,"ħ":232,"Ĩ":233,"ĩ":234,"Ī":235,"ī":236,"Ĭ":237,"ĭ":238,"Į":239,"į":240,"İ":241,"ı":242,"Ĳ":243,"ĳ":244,"Ĵ":245,"ĵ":246,"Ķ":247,"ķ":248,"ĸ":249,"Ĺ":250,"ĺ":251,"Ļ":252,"ļ":253,"Ľ":254,"ľ":255,"Ŀ":256,"ŀ":257,"Ł":258,"ł":259,"Ń":260,"ĠD":261,"ar":262,"en":263,"ĠS":264,"al":265,"ak":266,"akar":267,"ene":268,"ĠDakar":269,"gal":270,"ĠSene":271,"ĠSenegal":272,"ue":273,"te":274,"ĠN":275,"ĠA":276,"ou":277,"ĠR":278,"ĠC":279,"er":280,"ĠL":281,"ĠE":282,"ĠM":283,"le":284,"ĠP":285,"an":286,"ĠDe":287,"ĠF":288,"in":289,"Ġ1":290,"la":291,"re":292,"ĠB":293,"is":294,"ĠV":295,"eu":296,"ĠRue":297,"il":298,"Ġ2":299,"on":300,"or":301,"ce":302,"ĠG":303,"ie":304,"ent":305,"ite":306,"am":307,"illa":308,"ĠI":309,"ĠX":310,"Ġ3":311,"ĠVilla":312,"ic":313,"ven":314,"venue":315,"se":316,"oute":317,"mm":318,"ot":319,"ĠT":320,"ment":321,"ag":322,"ĠCo":323,"ib":324,"ĠFa":325,"ye":326,"ap":327,"ĠDi":328,"ac":329,"ann":330,"Dakar":331,"10":332,"ĠAvenue":333,"ble":334,"ĠH":335,"12":336,"15":337,"euble":338,"mmeuble":339,"au":340,"ad":341,"13":342,"14":343,"Ġ4":344,"op":345,"ss":346,"ĠBou":347,"18":348,"16":349,"Ġ6":350,"ire":351,"19":352,"17":353,"22":354,"ĠK":355,"at":356,"eur":357,"30":358,"ies":359,"isse":360,"ion":361,"lm":362,"iber":363,"ĠImmeuble":364,"Ġ5":365,"issement":366,"lle":367,"ff":368,"que":369,"24":370,"20":371,"otissement":372,"ĠRoute":373,"27":374,"icap":375,"age":376,"ĠEt":377,"int":378,"25":379,"ard":380,"iberte":381,"st":382,"id":383,"ĠCite":384,"29":385,"28":386,"26":387,"ĠDu":388,"ĠLa":389,"off":390,"ba":391,"Yoff":392,"33":393,"Rue":394,"ĠO":395,"lev":396,"ine":397,"he":398,"levard":399,"acre":400,"Cite":401,"and":402,"ĠPla":403,"23":404,"ĠFace":405,"ĠMar":406,"es":407,"ĠPo":408,"uar":409,"ĠFo":410,"ĠU":411,"ĠEtage":412,"ĠLotissement":413,"ĠYoff":414,"ĠFoire":415,"ĠBoulevard":416,"ĠLiberte":417,"erm":418,"el":419,"ed":420,"me":421,"ĠEx":422,"teau":423,"ĠCoeur":424,"ĠPlateau":425,"ĠFann":426,"it":427,"oz":428,"Ġ9":429,"ermoz":430,"ne":431,"ier":432,"ane":433,"ĠEn":434,"Sicap":435,"ĠGue":436,"ens":437,"iste":438,"ĠJ":439,"Ġ0":440,"ro":441,"Ġ10":442,"ik":443,"Ġ7":444,"ir":445,"ĠExt":446,"Ġ8":447,"ĠPoint":448,"dn":449,"isque":450,"res":451,"gu":452,"uf":453,"ĠDiop":454,"ĠDes":455,"ufisque":456,"ĠAm":457,"ĠMermoz":458,"ĠAss":459,"rand":460,"uest":461,"one":462,"ĠMariste":463,"ĠSacre":464,"ort":465,"ension":466,"lles":467,"Route":468,"ur":469,"ch":470,"ĠExtension":471,"Km":472,"pp":473,"ia":474,"Avenue":475,"ĠRufisque":476,"ĠMba":477,"ĠTh":478,"gor":479,"quar":480,"quare":481,"lmad":482,"ĠZ":483,"ol":484,"lmadies":485,"ĠVdn":486,"ain":487,"ĠEme":488,"00":489,"our":490,"55":491,"arce":492,"ina":493,"47":494,"ĠGrand":495,"68":496,"40":497,"11":498,"48":499,"65":500,"38":501,"ĠAn":502,"ĠCent":503,"49":504,"39":505,"67":506,"37":507,"45":508,"ĠSicap":509,"ique":510,"ence":511,"60":512,"69":513,"aire":514,"ta":515,"ĠHann":516,"ĠMed":517,"35":518,"ĠBour":519,"ĠMaristes":520,"ainies":521,"ĠAssainies":522,"ĠSo":523,"arcelles":524,"Sacre":525,"ĠGueye":526,"ĠLe":527,"ĠNgor":528,"idence":529,"ĠNd":530,"ĠOuest":531,"all":532,"ĠAlmadies":533,"78":534,"oport":535,"ord":536,"as":537,"eroport":538,"nd":539,"esidence":540,"ppar":541,"tier":542,"itie":543,"85":544,"ĠAppar":545,"79":546,"tement":547,"ĠUr":548,"oye":549,"ation":550,"34":551,"70":552,"ob":553,"75":554,"ass":555,"21":556,"36":557,"ĠZone":558,"ge":559,"ont":560,"ĠAppartement":561,"Hann":562,"ĠComm":563,"iba":564,"99":565,"ĠLam":566,"uak":567,"uakam":568,"ĠKeur":569,"44":570,"chn":571,"ao":572,"66":573,"ĠPy":574,"err":575,"im":576,"Hlm":577,"50":578,"ĠAeroport":579,"ĠBis":580,"ĠAir":581,"Quar":582,"80":583,"ĠMal":584,"ikine":585,"ĠLamine":586,"Quartier":587,"guiba":588,"89":589,"ĠMedina":590,"ĠResidence":591,"ĠAmitie":592,"enaire":593,"ĠChe":594,"ud":595,"ĠPyro":596,"techn":597,"ĠUn":598,"ĠMbaye":599,"ĠCentenaire":600,"32":601,"ĠPyrotechn":602,"Liberte":603,"ĠBourguiba":604,"ĠUrb":605,"59":606,"77":607,"ĠHlm":608,"mp":609,"ick":610,"ĠSquare":611,"cat":612,"ĠInd":613,"ĠPe":614,"31":615,"ix":616,"ikh":617,"oc":618,"aye":619,"ĠIi":620,"46":621,"Lotissement":622,"ĠMb":623,"iche":624,"ĠDj":625,"ĠSy":626,"ĠCheikh":627,"ĠNord":628,"ĠSa":629,"sse":630,"88":631,"ĠRe":632,"ĠUrbam":633,"90":634,"Ġ15":635,"Immeuble":636,"ise":637,"ral":638,"ĠPres":639,"ĠOuakam":640,"dia":641,"ule":642,"ĠEr":643,"ĠXe":644,"ame":645,"ĠUnite":646,"ond":647,"oint":648,"ĠBel":649,"che":650,"une":651,"ĠSt":652,"ily":653,"adou":654,"ĠSud":655,"ance":656,"ĠSaint":657,"64":658,"ĠMalick":659,"Square":660,"ber":661,"58":662,"eul":663,"Ġ20":664,"ĠDjily":665,"ĠCar":666,"ĠMou":667,"Ġ11":668,"Ġ14":669,"elix":670,"Ġ13":671,"ĠPikine":672,"ade":673,"be":674,"ĠFelix":675,"ci":676,"ĠCommune":677,"ĠCol":678,"ĠLou":679,"om":680,"gh":681,"Ġ12":682,"ĠAnta":683,"ut":684,"Parcelles":685,"57":686,"ĠMo":687,"ĠMbao":688,"ice":689,"ida":690,"ghor":691,"ĠFr":692,"obane":693,"ĠDiou":694,"98":695,"iar":696,"Point":697,"rie":698,"97":699,"dida":700,"ĠCur":701,"dou":702,"ip":703,"ure":704,"ĠPar":705,"ĠThies":706,"Bou":707,"ĠPyrotechnie":708,"agne":709,"43":710,"ĠFass":711,"ing":712,"iere":713,"ĠSe":714,"ĠSen":715,"Boulevard":716,"end":717,"ĠAl":718,"Ġ18":719,"Ouest":720,"orn":721,"ĠNdoye":722,"ĠDiouf":723,"ale":724,"orniche":725,"um":726,"ust":727,"her":728,"waye":729,"Villa":730,"ĠParcelles":731,"63":732,"95":733,"ĠCarn":734,"ĠJe":735,"ĠSenghor":736,"ĠCarnot":737,"diawaye":738,"ĠTall":739,"ĠCote":740,"iaye":741,"ĠSal":742,"ĠDiagne":743,"ĠMbour":744,"ĠAb":745,"ĠIndust":746,"ĠIndustrie":747,"old":748,"87":749,"laise":750,"ĠAmadou":751,"ĠKm":752,"ĠBlaise":753,"ĠY":754,"ĠColobane":755,"ape":756,"ra":757,"Ġ17":758,"ĠPont":759,"erriere":760,"62":761,"Zone":762,"tel":763,"ĠMass":764,"ig":765,"pe":766,"42":767,"41":768,"iaroye":769,"eupp":770,"euppeul":771,"ĠLouis":772,"ĠMousse":773,"ĠPlace":774,"gui":775,"olf":776,"Scat":777,"ĠSodida":778,"ĠQuartier":779,"ck":780,"Ġ16":781,"ĠEl":782,"ĠPonty":783,"ĠCam":784,"ĠCorniche":785,"ace":786,"ĠDerriere":787,"uil":788,"ĠCa":789,"ero":790,"ĠTape":791,"ers":792,"atte":793,"ĠTapee":794,"ub":795,"ĠTou":796,"61":797,"Ġ-":798,"ĠAssane":799,"ĠIndustrielle":800,"vin":801,"ĠMame":802,"ĠNum":803,"Ġ22":804,"ĠKao":805,"ĠGor":806,"ĠPey":807,"us":808,"tavin":809,"ĠAut":810,"ĠKh":811,"ĠLeop":812,"ang":813,"ĠTer":814,"ĠGuediawaye":815,"Mermoz":816,"ĠPeytavin":817,"ĠLeopold":818,"ĠW":819,"ĠGau":820,"ĠNumero":821,"ĠSed":822,"ĠGorgui":823,"ĠDieuppeul":824,"ep":825,"ĠPro":826,"ant":827,"ĠGe":828,"oroute":829,"uild":830,"Ġ30":831,"ubl":832,"Cent":833,"lack":834,"ĠFaure":835,"ipres":836,"ĠJean":837,"ĠFall":838,"endance":839,"ole":840,"ill":841,"herbe":842,"ĠScat":843,"ĠPomp":844,"ĠThiaroye":845,"ĠKaolack":846,"ĠFaid":847,"Ġ19":848,"ĠFaidherbe":849,"ĠGueule":850,"ĠTerre":851,"ublique":852,"iv":853,"ĠGal":854,"56":855,"ham":856,"ĠIii":857,"na":858,"ĠEc":859,"idou":860,"andou":861,"Ġ40":862,"ĠRep":863,"ependance":864,"ĠEs":865,"ĠDiam":866,"ĠOie":867,"teur":868,"ĠSedar":869,"gle":870,"bab":871,"ĠPompidou":872,"ĠRepublique":873,"erk":874,"Almadies":875,"ona":876,"ĠAutoroute":877,"ĠFerr":878,"08":879,"ico":880,"ĠAbdou":881,"ĠMassar":882,"erkle":883,"54":884,"94":885,"Ngor":886,"ĠCap":887,"inc":888,"bo":889,"io":890,"ĠRp":891,"kh":892,"stor":893,"73":894,"arou":895,"ĠBuild":896,"ĠVinc":897,"Ġ25":898,"76":899,"ĠAz":900,"ĠRond":901,"ĠMer":902,"ĠHo":903,"Ġ29":904,"ĠFront":905,"gi":906,"ĠTally":907,"74":908,"ĠAr":909,"ĠGene":910,"ĠCom":911,"ack":912,"ĠStation":913,"ĠGolf":914,"51":915,"ose":916,"ĠGeneral":917,"cs":918,"lon":919,"ĠSer":920,"Ġ26":921,"ĠComico":922,"53":923,"if":924,"ĠSey":925,"83":926,"ĠAngle":927,"ĠProlon":928,"ĠProlonge":929,"Ġ24":930,"ital":931,"hamed":932,"71":933,"100":934,"ĠIndependance":935,"ĠBourgi":936,"berene":937,"86":938,"irage":939,"52":940,"93":941,"96":942,"iou":943,"rac":944,"ĠJule":945,"Grand":946,"ĠNg":947,"pi":948,"ĠJules":949,"84":950,"Vdn":951,"ist":952,"bert":953,"ĠSaly":954,"ĠSipres":955,"ĠGeor":956,"bel":957,"ĠLes":958,"ĠEbo":959,"ĠVirage":960,"ĠFerry":961,"ĠEboue":962,"enne":963,"ĠAlle":964,"ident":965,"cial":966,"ile":967,"ĠNiaye":968,"Ġ23":969,"Nord":970,"ges":971,"ĠImp":972,"120":973,"150":974,"140":975,"ĠEst":976,"ab":977,"Ġ21":978,"ĠCentre":979,"ĠCommer":980,"ĠMamelles":981,"ĠGalandou":982,"ĠProlongee":983,"fr":984,"anal":985,"180":986,"ĠPyrotechnique":987,"igu":988,"ĠNation":989,"130":990,"En":991,"un":992,"amba":993,"190":994,"ĠPresident":995,"ĠNiayes":996,"Centre":997,"tre":998,"ĠBr":999,"otrac":1000,"ĠGeorges":1001,"Keur":1002,"ĠPa":1003,"160":1004,"ĠAzur":1005,"ĠLo":1006,"inch":1007,"170":1008,"inchor":1009,"82":1010,"ĠDerkle":1011,"ĠKar":1012,"ĠTouba":1013,"stors":1014,"iguinchor":1015,"har":1016,"ĠBat":1017,"300":1018,"72":1019,"ert":1020,"ĠVincens":1021,"de":1022,"92":1023,"aine":1024,"ĠZiguinchor":1025,"115":1026,"114":1027,"ĠAd":1028,"Ġ27":1029,"ices":1030,"Pikine":1031,"adj":1032,"opital":1033,"ĠPark":1034,"Di":1035,"ĠPatte":1036,"ĠJau":1037,"ĠMohamed":1038,"pecs":1039,"ĠGaulle":1040,"akh":1041,"ĠRa":1042,"aobab":1043,"pecsy":1044,"81":1045,"91":1046,"Rond":1047,"nes":1048,"Ġ50":1049,"ĠSan":1050,"Ouakam":1051,"oum":1052,"ĠMiche":1053,"ĠBaobab":1054,"260":1055,"ĠMichel":1056,"ien":1057,"iment":1058,"ĠPort":1059,"200":1060,"110":1061,"lin":1062,"ĠMa":1063,"ĠMe":1064,"117":1065,"ĠVi":1066,"112":1067,"113":1068,"328":1069,"ime":1070,"ĠSar":1071,"ter":1072,"ĠAv":1073,"118":1074,"240":1075,"290":1076,"arcelle":1077,"ĠCommercial":1078,"212":1079,"325":1080,"ĠAfr":1081,"adio":1082,"220":1083,"ocade":1084,"onatel":1085,"119":1086,"313":1087,"Pla":1088,"ĠSonatel":1089,"ĠApecsy":1090,"erie":1091,"Ġ28":1092,"152":1093,"270":1094,"ourbel":1095,"omaine":1096,"ĠEsc":1097,"ĠEcole":1098,"ĠJaures":1099,"116":1100,"ĠCanal":1101,"ĠNdiaye":1102,"ph":1103,"rim":1104,"ĠWag":1105,"310":1106,"sque":1107,"ĠDiourbel":1108,"ĠMedine":1109,"ĠCamp":1110,"ĠBatiment":1111,"216":1112,"ni":1113,"are":1114,"ĠCh":1115,"ĠDial":1116,"ĠBuilders":1117,"214":1118,"320":1119,"ze":1120,"Ġ01":1121,"312":1122,"319":1123,"Residence":1124,"ai":1125,"ga":1126,"squee":1127,"218":1128,"230":1129,"315":1130,"318":1131,"Qu":1132,"250":1133,"ĠCamberene":1134,"ĠWagane":1135,"210":1136,"213":1137,"217":1138,"314":1139,"324":1140,"329":1141,"ore":1142,"orte":1143,"ĠNationale":1144,"215":1145,"219":1146,"316":1147,"317":1148,"322":1149,"330":1150,"280":1151,"Ġ03":1152,"ĠThion":1153,"ĠMosquee":1154,"327":1155,"326":1156,"agu":1157,"ĠAllees":1158,"Rufisque":1159,"ll":1160,"ĠSur":1161,"ĠPorte":1162,"amo":1163,"Ġ45":1164,"ĠMarche":1165,"ĠThiong":1166,"233":1167,"niadio":1168,"hm":1169,"ama":1170,"ĠIs":1171,"128":1172,"Ġ06":1173,"ĠCastors":1174,"alif":1175,"ĠNi":1176,"amb":1177,"ĠHadj":1178,"idien":1179,"ĠBir":1180,"ĠThe":1181,"Ġ02":1182,"ĠTol":1183,"ourou":1184,"asse":1185,"ĠKarim":1186,"ĠLiber":1187,"ĠParcelle":1188,"106":1189,"ĠAu":1190,"ĠPas":1191,"ĠHass":1192,"323":1193,"ĠDk":1194,"ĠDarou":1195,"ĠEau":1196,"Ġ33":1197,"109":1198,"155":1199,"178":1200,"oile":1201,"ĠDam":1202,"iss":1203,"105":1204,"obert":1205,"go":1206,"ĠSand":1207,"149":1208,"ĠJose":1209,"ĠMeridien":1210,"ĠSarr":1211,"ĠJoseph":1212,"ct":1213,"di":1214,"ĠGom":1215,"ĠPasteur":1216,"ĠRobert":1217,"ĠCices":1218,"Ġ31":1219,"ĠFat":1220,"135":1221,"139":1222,"ĠPol":1223,"ock":1224,"ĠStade":1225,"ĠSeydou":1226,"Quai":1227,"Gue":1228,"tage":1229,"ve":1230,"ĠDomaine":1231,"ict":1232,"145":1233,"179":1234,"ĠPeche":1235,"pace":1236,"ĠNourou":1237,"ĠPhar":1238,"108":1239,"ĠHock":1240,"129":1241,"Ġ04":1242,"ĠGomis":1243,"mac":1244,"159":1245,"ĠCaptage":1246,"linique":1247,"Fann":1248,"Patte":1249,"ara":1250,"laye":1251,"ĠBamba":1252,"Ġ34":1253,"Ġ37":1254,"175":1255,"269":1256,"ĠLouga":1257,"ĠPaill":1258,"ĠGou":1259,"125":1260,"ĠKing":1261,"238":1262,"macie":1263,"Ġ38":1264,"ago":1265,"138":1266,"ĠHotel":1267,"ĠHassan":1268,"Med":1269,"bi":1270,"104":1271,"127":1272,"148":1273,"167":1274,"278":1275,"255":1276,"298":1277,"cienne":1278,"ĠRaff":1279,"mb":1280,"ĠBan":1281,"158":1282,"137":1283,"bass":1284,"ĠPharmacie":1285,"cd":1286,"tte":1287,"appe":1288,"107":1289,"oprim":1290,"185":1291,"ĠParch":1292,"ĠRo":1293,"att":1294,"lmas":1295,"279":1296,"289":1297,"oree":1298,"ĠParchappe":1299,"ya":1300,"ĠTe":1301,"189":1302,"165":1303,"168":1304,"169":1305,"Ġ60":1306,"199":1307,"249":1308,"209":1309,"ĠEtoile":1310,"335":1311,"Ġ70":1312,"igne":1313,"ĠSotrac":1314,"ĠMag":1315,"ĠBi":1316,"Ġ35":1317,"157":1318,"187":1319,"228":1320,"Ġ05":1321,"ĠPolice":1322,"ĠCad":1323,"ĠPiste":1324,"ille":1325,"sec":1326,"198":1327,"208":1328,"338":1329,"Place":1330,"enel":1331,"ĠBl":1332,"ots":1333,"aul":1334,"225":1335,"205":1336,"295":1337,"239":1338,"ĠMarina":1339,"roise":1340,"ĠCentral":1341,"istr":1342,"et":1343,"tar":1344,"ĠFad":1345,"ĠHu":1346,"126":1347,"147":1348,"188":1349,"Ġ67":1350,"245":1351,"299":1352,"235":1353,"Medina":1354,"ĠMarinas":1355,"bou":1356,"124":1357,"229":1358,"308":1359,"309":1360,"248":1361,"259":1362,"Ġ08":1363,"ĠMole":1364,"ĠAlbert":1365,"ĠRaffenel":1366,"og":1367,"195":1368,"305":1369,"268":1370,"237":1371,"So":1372,"gn":1373,"ĠCpi":1374,"ĠBar":1375,"ĠVict":1376,"227":1377,"258":1378,"285":1379,"337":1380,"ĠSalam":1381,"ĠBirago":1382,"ĠHugo":1383,"Ġ32":1384,"Ġ39":1385,"ibral":1386,"ĠHy":1387,"197":1388,"ĠKe":1389,"275":1390,"ĠFrance":1391,"ĠTheze":1392,"biac":1393,"Th":1394,"ĠCas":1395,"ĠGare":1396,"ention":1397,"Ġ36":1398,"134":1399,"144":1400,"Ġ44":1401,"288":1402,"265":1403,"267":1404,"ĠJet":1405,"secna":1406,"ĠVictor":1407,"Golf":1408,"ĠCard":1409,"ĠHuar":1410,"156":1411,"186":1412,"177":1413,"307":1414,"207":1415,"ĠLay":1416,"khna":1417,"ibraltar":1418,"ĠHuart":1419,"cot":1420,"ĠDr":1421,"ĠShe":1422,"146":1423,"277":1424,"257":1425,"297":1426,"ĠExtention":1427,"Face":1428,"ĠAhm":1429,"ĠAsecna":1430,"Ġ42":1431,"247":1432,"Ġ07":1433,"000":1434,"ĠAncienne":1435,"alifort":1436,"ĠFah":1437,"287":1438,"Ġ100":1439,"Sodida":1440,"ĠGr":1441,"ĠFadia":1442,"aut":1443,"256":1444,"ĠSokhna":1445,"ĠTolbiac":1446,"ĠDkr":1447,"ĠDamel":1448,"ĠFatick":1449,"ĠAhmadou":1450,"af":1451,"ound":1452,"ĠRou":1453,"ĠLib":1454,"Ġ43":1455,"224":1456,"ĠGauche":1457,"oul":1458,"ĠGu":1459,"iege":1460,"136":1461,"174":1462,"176":1463,"Ġ54":1464,"ĠCadres":1465,"ote":1466,"ĠDoc":1467,"ĠCp":1468,"154":1469,"Ġ47":1470,"226":1471,"roisement":1472,"184":1473,"164":1474,"196":1475,"ĠKebe":1476,"ĠShell":1477,"ĠFahd":1478,"ĠDocteur":1479,"ĠSoprim":1480,"ĠBce":1481,"aur":1482,"166":1483,"Ġ56":1484,"Ġ58":1485,"334":1486,"ĠPlage":1487,"ĠServ":1488,"ĠAfrique":1489,"ĠLiberation":1490,"iation":1491,"ere":1492,"ĠIn":1493,"aph":1494,"103":1495,"Ġ41":1496,"Ġ0152":1497,"iga":1498,"Diam":1499,"ĠBceao":1500,"Am":1501,"okh":1502,"ste":1503,"alaye":1504,"ĠRd":1505,"ĠPal":1506,"ĠIv":1507,"306":1508,"246":1509,"204":1510,"254":1511,"ĠJeu":1512,"Ġ09":1513,"Ġ86":1514,"ĠAviation":1515,"ĠChau":1516,"ĠSarraut":1517,"sine":1518,"alla":1519,"ĠLut":1520,"ĠMill":1521,"ĠPaul":1522,"102":1523,"ĠHopital":1524,"Ġ62":1525,"Ġ64":1526,"304":1527,"206":1528,"296":1529,"286":1530,"ĠMart":1531,"ĠDiamniadio":1532,"ĠHadji":1533,"Cam":1534,"dre":1535,"red":1536,"aga":1537,"agou":1538,"Ġ65":1539,"194":1540,"284":1541,"336":1542,"ande":1543,"ĠRez":1544,"ĠIsra":1545,"ĠChausse":1546,"ĠDan":1547,"ind":1548,"Ġ57":1549,"244":1550,"274":1551,"264":1552,"236":1553,"mette":1554,"ĠSow":1555,"ĠFran":1556,"ĠEspace":1557,"ĠSerigne":1558,"Guediawaye":1559,"ĠJeunes":1560,"ĠLuther":1561,"lie":1562,"ĠDa":1563,"ĠDro":1564,"ĠSam":1565,"ĠPer":1566,"ĠVillage":1567,"276":1568,"294":1569,"ĠEntre":1570,"ĠBuilding":1571,"ĠChaussee":1572,"inte":1573,"Ġ55":1574,"266":1575,"234":1576,"ĠAndre":1577,"ĠSom":1578,"tiere":1579,"istrat":1580,"ĠService":1581,"lieue":1582,"enal":1583,"aly":1584,"ouve":1585,"olobane":1586,"ĠQuai":1587,"ĠDou":1588,"ĠRocade":1589,"ira":1590,"ureau":1591,"ĠDomaines":1592,"ĠBa":1593,"ĠBc":1594,"Ġ46":1595,"opp":1596,"Ġ68":1597,"imz":1598,"ĠMback":1599,"ign":1600,"ioune":1601,"ĠImpots":1602,"gny":1603,"Fass":1604,"ait":1605,"tec":1606,"Ġ185":1607,"cean":1608,"Ġ48":1609,"Ġ66":1610,"Ġ75":1611,"ĠAmbass":1612,"onepi":1613,"Central":1614,"agui":1615,"ĠBiagui":1616,"ĠCarde":1617,"Amitie":1618,"ĠRdc":1619,"ĠMartin":1620,"ĠDroite":1621,"enetre":1622,"ĠBe":1623,"ĠVo":1624,"ĠXc":1625,"acar":1626,"ĠDunes":1627,"ĠMarch":1628,"ĠMillion":1629,"Hopital":1630,"Sotrac":1631,"mble":1632,"oire":1633,"uagou":1634,"arf":1635,"ĠSu":1636,"ĠAsse":1637,"Ġ59":1638,"ĠLaeroport":1639,"ĠOcean":1640,"ĠLebou":1641,"ĠPet":1642,"ounda":1643,"ĠMbacke":1644,"gence":1645,"Ġ110":1646,"123":1647,"ĠEnf":1648,"ĠAbdoulaye":1649,"ĠEscarf":1650,"Alle":1651,"Hamo":1652,"Rocade":1653,"ca":1654,"cl":1655,"ĠDalifort":1656,"ĠNimz":1657,"ĠEm":1658,"133":1659,"ĠPoste":1660,"Ġ99":1661,"ima":1662,"ambac":1663,"ĠBanlieue":1664,"ĠBloc":1665,"Ca":1666,"Mame":1667,"ĠNo":1668,"ĠAp":1669,"Ġ52":1670,"Ġ90":1671,"ourt":1672,"ĠFadiga":1673,"ĠEscarfait":1674,"dro":1675,"kam":1676,"naire":1677,"th":1678,"ul":1679,"ĠDelmas":1680,"aud":1681,"ide":1682,"Ġ84":1683,"udal":1684,"ivers":1685,"ĠImpasse":1686,"ĠSante":1687,"Thiaroye":1688,"ambacounda":1689,"Colobane":1690,"ran":1691,"ĠMz":1692,"ĠMat":1693,"leur":1694,"Ġ80":1695,"ĠColbert":1696,"ĠLoin":1697,"cotaf":1698,"ĠPeres":1699,"Corniche":1700,"ĠSonepi":1701,"ĠCal":1702,"ĠCes":1703,"oro":1704,"ĠDiokh":1705,"Ġ97":1706,"Ġ73":1707,"Ġ77":1708,"raf":1709,"ĠHolle":1710,"ĠPaillote":1711,"mblee":1712,"Mamelles":1713,"xe":1714,"ret":1715,"ĠIcotaf":1716,"ĠTambacounda":1717,"ĠJo":1718,"111":1719,"ĠDiamalaye":1720,"ĠDantec":1721,"ĠMarchand":1722,"ĠDiokhane":1723,"gion":1724,"ĠSou":1725,"oup":1726,"ĠPd":1727,"ĠPenal":1728,"ĠDeg":1729,"121":1730,"143":1731,"andar":1732,"Ġ96":1733,"ĠPortudal":1734,"ĠEscale":1735,"ĠAssemblee":1736,"rafat":1737,"Sipres":1738,"co":1739,"ĠSde":1740,"galkam":1741,"ĠCime":1742,"ĠBer":1743,"153":1744,"ĠHydro":1745,"Camberene":1746,"ĠCesaire":1747,"Mar":1748,"Saly":1749,"iz":1750,"ars":1751,"ĠAime":1752,"ĠFleur":1753,"ica":1754,"ich":1755,"ĠHamo":1756,"irie":1757,"ĠKhad":1758,"mbeul":1759,"point":1760,"raph":1761,"arc":1762,"ĠLy":1763,"lec":1764,"ĠPr":1765,"163":1766,"Ġ61":1767,"ĠThi":1768,"ĠBaobabs":1769,"ĠMillionnaire":1770,"car":1771,"min":1772,"ĠCit":1773,"eumbeul":1774,"ĠIb":1775,"bao":1776,"oche":1777,"iversite":1778,"raphique":1779,"land":1780,"ma":1781,"vel":1782,"ĠCroisement":1783,"ĠTf":1784,"ction":1785,"ĠCalmette":1786,"ĠFleurus":1787,"ĠClinique":1788,"ĠDel":1789,"inier":1790,"ĠColle":1791,"aparou":1792,"ĠDior":1793,"131":1794,"183":1795,"Ġ51":1796,"Ġ85":1797,"olda":1798,"ĠArist":1799,"ĠSandinier":1800,"ĠBccd":1801,"ĠPdt":1802,"ĠAristide":1803,"St":1804,"ĠNon":1805,"ĠMan":1806,"101":1807,"ada":1808,"132":1809,"173":1810,"ĠAmp":1811,"ĠMalan":1812,"ĠKhandar":1813,"unic":1814,"ĠBrun":1815,"ĠAdmin":1816,"ĠSangalkam":1817,"ographique":1818,"ĠIbra":1819,"ĠSandiniery":1820,"01":1821,"An":1822,"ĠDoree":1823,"eni":1824,"ĠRame":1825,"ĠMunic":1826,"ĠBureau":1827,"ĠKa":1828,"ĠThann":1829,"mple":1830,"ĠIndustriel":1831,"ĠTound":1832,"ĠBargny":1833,"ĠLayenne":1834,"ĠLebous":1835,"ĠRamez":1836,"cal":1837,"eme":1838,"ioche":1839,"ĠRose":1840,"ĠCon":1841,"ĠLob":1842,"ĠKolda":1843,"Ġ104":1844,"ĠRegion":1845,"ĠBrioche":1846,"ĠSandaga":1847,"ĠMunicip":1848,"Aeroport":1849,"fred":1850,"ja":1851,"ly":1852,"ton":1853,"ĠAbab":1854,"ĠGoree":1855,"amil":1856,"141":1857,"293":1858,"Ġ107":1859,"onde":1860,"ĠGeographique":1861,"Dieuppeul":1862,"aguene":1863,"ĠAbabacar":1864,"cine":1865,"lot":1866,"ry":1867,"arm":1868,"ĠNot":1869,"ĠMon":1870,"ĠVers":1871,"onghor":1872,"ĠHac":1873,"151":1874,"Ġ49":1875,"ĠBoul":1876,"ĠBoum":1877,"193":1878,"203":1879,"ĠMairie":1880,"dih":1881,"ĠGoux":1882,"ĠEnface":1883,"Clinique":1884,"Es":1885,"Tou":1886,"bu":1887,"da":1888,"ena":1889,"ĠBo":1890,"ĠVille":1891,"orme":1892,"ĠGibraltar":1893,"amou":1894,"ĠTot":1895,"Ġ63":1896,"Ġ76":1897,"Ġ89":1898,"ĠZac":1899,"ĠAlfred":1900,"ĠEmile":1901,"ĠHydrocar":1902,"Un":1903,"ĠSdih":1904,"ĠRane":1905,"eries":1906,"ĠMande":1907,"ref":1908,"ĠBopp":1909,"otte":1910,"122":1911,"223":1912,"ĠKle":1913,"303":1914,"Ġ53":1915,"243":1916,"273":1917,"253":1918,"283":1919,"Ġ94":1920,"Ġ102":1921,"asland":1922,"ĠGrasland":1923,"ĠApres":1924,"mplexe":1925,"bures":1926,"ĠMandela":1927,"Siege":1928,"ĠDo":1929,"ĠSor":1930,"ĠCcd":1931,"ĠPh":1932,"ĠTonghor":1933,"333":1934,"ĠUsine":1935,"ith":1936,"Ġ98":1937,"Ġ74":1938,"Ġ87":1939,"653":1940,"ĠAppart":1941,"iary":1942,"ĠVincent":1943,"ĠNgaparou":1944,"ĠAllee":1945,"ĠPaillotte":1946,"Diamniadio":1947,"ouveau":1948,"ĠVoies":1949,"ĠKhadim":1950,"ĠRegional":1951,"lymp":1952,"ĠTotal":1953,"mane":1954,"vis":1955,"za":1956,"out":1957,"ĠRot":1958,"ank":1959,"Ġ125":1960,"adi":1961,"181":1962,"Ġ72":1963,"ĠLeo":1964,"tern":1965,"ĠAvion":1966,"ĠMunicipal":1967,"ĠHydrocarbures":1968,"02":1969,"Gibraltar":1970,"os":1971,"ĠMix":1972,"Ġ115":1973,"ĠBen":1974,"ĠTerr":1975,"Ġ69":1976,"263":1977,"ĠOus":1978,"ĠOlymp":1979,"inet":1980,"Ġ95":1981,"Ġ105":1982,"ika":1983,"558":1984,"658":1985,"ĠParent":1986,"ants":1987,"ĠAdja":1988,"ĠSup":1989,"ĠNimzatt":1990,"ĠDelorme":1991,"ĠCollege":1992,"ĠBoumack":1993,"ĠKleber":1994,"07":1995,"Ouagou":1996,"aou":1997,"ĠSc":1998,"ĠMourt":1999,"ĠFro":2000,"ĠGend":2001,"Ġ71":2002,"Ġ79":2003,"373":2004,"enda":2005,"ĠAlioune":2006,"ĠFranche":2007,"ĠRotonde":2008,"ĠMixta":2009,"ĠOusmane":2010,"ĠGendarm":2011,"04":2012,"Cit":2013,"Mole":2014,"bs":2015,"dina":2016,"ĠArafat":2017,"ĠLim":2018,"inoum":2019,"ĠIlot":2020,"172":2021,"eurs":2022,"ĠMarine":2023,"002":2024,"ĠCase":2025,"ĠAmbassade":2026,"Castors":2027,"ĠOlympique":2028,"ĠGendarmerie":2029,"ĠLimamou":2030,"Sud":2031,"ĠQ":2032,"eng":2033,"ĠSg":2034,"tele":2035,"ĠAe":2036,"ach":2037,"162":2038,"201":2039,"332":2040,"ermes":2041,"ains":2042,"471":2043,"ĠGrande":2044,"606":2045,"ĠUrban":2046,"anger":2047,"ivaou":2048,"ĠArt":2049,"ĠNiang":2050,"ĠPetit":2051,"ĠNotaire":2052,"refour":2053,"visoire":2054,"ĠFrob":2055,"06":2056,"Cices":2057,"ay":2058,"riv":2059,"ĠSage":2060,"ĠSiege":2061,"ĠCen":2062,"ĠCla":2063,"erc":2064,"ĠFer":2065,"Ġ145":2066,"ĠVer":2067,"ĠImm":2068,"acr":2069,"ady":2070,"191":2071,"221":2072,"252":2073,"ĠLaye":2074,"486":2075,"674":2076,"obank":2077,"ĠYalla":2078,"angerie":2079,"ĠAfrica":2080,"Allees":2081,"velt":2082,"ĠToundoup":2083,"ĠBoulangerie":2084,"ĠTerrain":2085,"ĠMourtada":2086,"rivains":2087,"03":2088,"Darou":2089,"Ex":2090,"Fenetre":2091,"Mb":2092,"son":2093,"ĠAt":2094,"ĠAinoum":2095,"ĠBene":2096,"amitie":2097,"ĠHermes":2098,"142":2099,"192":2100,"222":2101,"Ġ78":2102,"Ġ88":2103,"555":2104,"684":2105,"404":2106,"651":2107,"492":2108,"459":2109,"allo":2110,"ciale":2111,"ive":2112,"ĠEcobank":2113,"ĠEcrivains":2114,"ĠAdministrat":2115,"Touba":2116,"Co":2117,"ian":2118,"ienda":2119,"ĠAgence":2120,"ĠEamitie":2121,"ĠMage":2122,"ĠDem":2123,"ino":2124,"ĠBaye":2125,"Ġ221":2126,"ĠFay":2127,"aux":2128,"182":2129,"ath":2130,"staur":2131,"339":2132,"ĠOu":2133,"231":2134,"ĠMarie":2135,"ĠFannpoint":2136,"474":2137,"683":2138,"650":2139,"454":2140,"601":2141,"602":2142,"350":2143,"ĠSocial":2144,"ĠMouhamed":2145,"ĠParc":2146,"ĠSeydina":2147,"ĠRoutiere":2148,"ĠBeranger":2149,"ĠIbrah":2150,"ĠSgbs":2151,"ĠSagef":2152,"staurant":2153,"aba":2154,"ĠSia":2155,"ĠNel":2156,"ĠLat":2157,"ĠMaur":2158,"ĠPap":2159,"aco":2160,"171":2161,"232":2162,"554":2163,"686":2164,"485":2165,"657":2166,"496":2167,"399":2168,"603":2169,"608":2170,"343":2171,"364":2172,"ĠDjamil":2173,"ĠRestaurant":2174,"ĠSeydi":2175,"ĠBrass":2176,"ĠMagistrat":2177,"ĠSamu":2178,"ĠDegau":2179,"enius":2180,"ĠHacienda":2181,"ĠAelmas":2182,"visoirement":2183,"ĠAdministratif":2184,"ĠNelson":2185,"lo":2186,"arakh":2187,"ĠRya":2188,"ĠLap":2189,"ĠLind":2190,"ĠMin":2191,"ĠPre":2192,"inci":2193,"271":2194,"331":2195,"ĠPlaza":2196,"iers":2197,"Ġ106":2198,"Ġ108":2199,"470":2200,"476":2201,"477":2202,"654":2203,"383":2204,"395":2205,"396":2206,"370":2207,"690":2208,"ĠMedic":2209,"ĠEly":2210,"ĠElton":2211,"ĠDiamaguene":2212,"ĠKarack":2213,"issance":2214,"ĠJoal":2215,"ĠCimetiere":2216,"ĠPrinci":2217,"ĠLobatt":2218,"enaissance":2219,"ĠCenter":2220,"ĠBrasseries":2221,"ĠPrincip":2222,"Build":2223,"Derkle":2224,"do":2225,"peul":2226,"ĠSot":2227,"ĠRenaissance":2228,"ĠEle":2229,"Ġ150":2230,"isme":2231,"iscine":2232,"eupeul":2233,"ĠGo":2234,"ĠIeme":2235,"ĠTivaou":2236,"161":2237,"301":2238,"302":2239,"241":2240,"282":2241,"262":2242,"ĠMars":2243,"559":2244,"475":2245,"680":2246,"687":2247,"688":2248,"402":2249,"406":2250,"408":2251,"484":2252,"488":2253,"656":2254,"490":2255,"491":2256,"394":2257,"397":2258,"670":2259,"359":2260,"750":2261,"754":2262,"ĠUniversite":2263,"976":2264,"osevelt":2265,"ĠRoosevelt":2266,"Ġ18524":2267,"Mariste":2268,"Espace":2269,"ĠFrobenius":2270,"Building":2271,"Plles":2272,"Zac":2273,"ii":2274,"ĠNiary":2275,"ĠCour":2276,"ĠCbao":2277,"Ġ120":2278,"ĠBu":2279,"ĠDiar":2280,"292":2281,"ĠMari":2282,"itaire":2283,"005":2284,"472":2285,"473":2286,"682":2287,"403":2288,"405":2289,"407":2290,"409":2291,"487":2292,"382":2293,"673":2294,"677":2295,"678":2296,"374":2297,"605":2298,"607":2299,"694":2300,"352":2301,"783":2302,"346":2303,"ims":2304,"ĠReims":2305,"ĠAll":2306,"Village":2307,"ĠFerraud":2308,"ĠLibert":2309,"ĠLayene":2310,"ĠMatam":2311,"Stade":2312,"ĠDoie":2313,"ĠIbrahima":2314,"ĠLindependance":2315,"ĠSotiba":2316,"ĠElect":2317,"ĠMarsat":2318,"Po":2319,"Pro":2320,"Pres":2321,"aw":2322,"sp":2323,"ĠSenelec":2324,"ĠPiscine":2325,"ĠFret":2326,"ĠIcs":2327,"ĠKerm":2328,"202":2329,"Ġ81":2330,"001":2331,"008":2332,"550":2333,"556":2334,"401":2335,"480":2336,"489":2337,"380":2338,"497":2339,"498":2340,"390":2341,"679":2342,"375":2343,"378":2344,"379":2345,"450":2346,"452":2347,"453":2348,"456":2349,"609":2350,"691":2351,"692":2352,"696":2353,"351":2354,"357":2355,"ĠNdind":2356,"342":2357,"753":2358,"759":2359,"362":2360,"772":2361,"461":2362,"Ġ157":2363,"587":2364,"ĠCarrefour":2365,"ĠAziz":2366,"adji":2367,"ĠToll":2368,"ĠTechn":2369,"ĠIntern":2370,"ĠArtis":2371,"ĠFaycal":2372,"ĠPapa":2373,"ĠMagistrats":2374,"ĠKermel":2375,"ĠNdindy":2376,"ĠInternation":2377,"Fr":2378,"fant":2379,"ho":2380,"xa":2381,"enfant":2382,"ĠAst":2383,"ĠMade":2384,"ĠFenetre":2385,"adere":2386,"272":2387,"291":2388,"olog":2389,"006":2390,"551":2391,"482":2392,"652":2393,"659":2394,"385":2395,"386":2396,"388":2397,"493":2398,"499":2399,"391":2400,"392":2401,"398":2402,"371":2403,"372":2404,"376":2405,"451":2406,"457":2407,"458":2408,"695":2409,"698":2410,"796":2411,"344":2412,"709":2413,"757":2414,"363":2415,"443":2416,"446":2417,"ĠPyr":2418,"ĠMalenfant":2419,"643":2420,"574":2421,"ĠYeumbeul":2422,"ĠGouye":2423,"ĠSomone":2424,"ichard":2425,"ĠLimamoulaye":2426,"ĠUrbanisme":2427,"Mbour":2428,"ĠMaurice":2429,"ĠMariama":2430,"Front":2431,"Port":2432,"Parc":2433,"fe":2434,"sen":2435,"va":2436,"yl":2437,"ĠSk":2438,"ĠSall":2439,"ison":2440,"ĠTr":2441,"ĠTerm":2442,"ques":2443,"242":2444,"Ġ93":2445,"007":2446,"553":2447,"478":2448,"689":2449,"481":2450,"483":2451,"381":2452,"384":2453,"494":2454,"495":2455,"393":2456,"671":2457,"672":2458,"676":2459,"377":2460,"604":2461,"693":2462,"356":2463,"358":2464,"ĠLecl":2465,"ĠNdi":2466,"780":2467,"781":2468,"782":2469,"785":2470,"850":2471,"790":2472,"341":2473,"701":2474,"751":2475,"366":2476,"992":2477,"442":2478,"444":2479,"663":2480,"503":2481,"804":2482,"597":2483,"462":2484,"463":2485,"641":2486,"Ġ2013":2487,"ĠSeck":2488,"ĠYf":2489,"ĠMaz":2490,"alifa":2491,"ĠPalm":2492,"ĠEntree":2493,"ĠThiandou":2494,"ĠDegaulle":2495,"ĠAstou":2496,"Croisement":2497,"bed":2498,"my":2499,"ome":2500,"ari":2501,"ĠSap":2502,"ĠNe":2503,"oun":2504,"leine":2505,"ana":2506,"ĠFort":2507,"ĠBic":2508,"ĠIba":2509,"ĠTa":2510,"251":2511,"281":2512,"ĠOil":2513,"ĠPointe":2514,"Ġ91":2515,"004":2516,"009":2517,"552":2518,"479":2519,"681":2520,"685":2521,"387":2522,"389":2523,"675":2524,"697":2525,"699":2526,"353":2527,"ĠLeon":2528,"787":2529,"789":2530,"794":2531,"752":2532,"361":2533,"502":2534,"803":2535,"805":2536,"774":2537,"642":2538,"ĠSea":2539,"ĠAbd":2540,"ĠCastor":2541,"ĠHosp":2542,"italier":2543,"iouth":2544,"ĠAdama":2545,"Gueule":2546,"ĠAmbassad":2547,"ult":2548,"Angle":2549,"ĠPhil":2550,"ĠPrincipale":2551,"ĠElectra":2552,"ĠMadeleine":2553,"ĠLeclerc":2554,"ĠBicis":2555,"ĠHospitalier":2556,"Usine":2557,"ium":2558,"ola":2559,"ull":2560,"arche":2561,"ĠRan":2562,"ĠLss":2563,"ĠPc":2564,"ĠDep":2565,"lam":2566,"cee":2567,"entaba":2568,"ĠComplexe":2569,"ĠHab":2570,"opole":2571,"261":2572,"ermarche":2573,"ĠEnse":2574,"Ġ101":2575,"557":2576,"354":2577,"784":2578,"788":2579,"851":2580,"858":2581,"792":2582,"795":2583,"798":2584,"799":2585,"703":2586,"756":2587,"758":2588,"ĠKeury":2589,"662":2590,"664":2591,"666":2592,"802":2593,"807":2594,"893":2595,"894":2596,"771":2597,"777":2598,"464":2599,"886":2600,"987":2601,"antine":2602,"086":2603,"akhin":2604,"oumbed":2605,"ĠCasino":2606,"ĠDouan":2607,"ĠLycee":2608,"ĠAinoumady":2609,"ĠDemba":2610,"ĠSkir":2611,"ĠThiandoum":2612,"Agence":2613,"gue":2614,"hs":2615,"lou":2616,"to":2617,"yer":2618,"ĠNull":2619,"ĠAbass":2620,"ousse":2621,"ĠFlo":2622,"Ġ112":2623,"Ġ124":2624,"ĠVert":2625,"ĠTam":2626,"ĠDiene":2627,"acques":2628,"stit":2629,"andian":2630,"ierre":2631,"istere":2632,"ĠJacques":2633,"003":2634,"857":2635,"791":2636,"702":2637,"705":2638,"706":2639,"707":2640,"708":2641,"441":2642,"661":2643,"508":2644,"801":2645,"890":2646,"895":2647,"ĠChez":2648,"590":2649,"595":2650,"773":2651,"776":2652,"884":2653,"887":2654,"584":2655,"586":2656,"ĠAbc":2657,"ĠYarakh":2658,"ĠKhalifa":2659,"ĠFallou":2660,"ĠDamas":2661,"eto":2662,"ĠLiban":2663,"Allee":2664,"ĠTivaouane":2665,"ĠDiarama":2666,"Provisoirement":2667,"ĠEnseign":2668,"akhinane":2669,"oumbedioune":2670,"ĠDouanes":2671,"ĠFloor":2672,"stitut":2673,"Derriere":2674,"Domaine":2675,"Sacr":2676,"gane":2677,"od":2678,"ĠRene":2679,"ĠCd":2680,"ĠCl":2681,"ĠMont":2682,"ĠFon":2683,"Ġ113":2684,"ĠBadi":2685,"onome":2686,"otane":2687,"ĠTandian":2688,"ĠDiallo":2689,"ĠOm":2690,"ĠOuagou":2691,"Ġ82":2692,"guene":2693,"786":2694,"tieres":2695,"853":2696,"856":2697,"793":2698,"797":2699,"704":2700,"996":2701,"999":2702,"501":2703,"507":2704,"806":2705,"808":2706,"891":2707,"591":2708,"881":2709,"901":2710,"573":2711,"ĠAutonome":2712,"ĠImprim":2713,"ĠPaix":2714,"Plage":2715,"ĠGuentaba":2716,"ĠPalace":2717,"ĠBelle":2718,"ĠCity":2719,"ĠMedical":2720,"ĠAmbassadeurs":2721,"ĠRanr":2722,"ĠBadiane":2723,"ĠImprimerie":2724,"Bopp":2725,"Pet":2726,"hn":2727,"ipp":2728,"sacre":2729,"ĠSant":2730,"aka":2731,"ĠAc":2732,"ĠRichard":2733,"ĠCantine":2734,"ĠLoc":2735,"ĠPierre":2736,"ĠTour":2737,"sso":2738,"inthe":2739,"ĠOn":2740,"ĠFoot":2741,"Ġ92":2742,"ĠLeona":2743,"852":2744,"854":2745,"859":2746,"990":2747,"993":2748,"509":2749,"809":2750,"892":2751,"896":2752,"898":2753,"594":2754,"882":2755,"883":2756,"888":2757,"905":2758,"581":2759,"Ġ203":2760,"bess":2761,"873":2762,"ĠCab":2763,"ĠKha":2764,"oumba":2765,"tersen":2766,"mbarc":2767,"ĠDav":2768,"Unite":2769,"mbarcadere":2770,"Appar":2771,"Mal":2772,"Yeumbeul":2773,"av":2774,"cu":2775,"cad":2776,"ila":2777,"rt":2778,"ĠDar":2779,"ĠDab":2780,"ĠSoumbedioune":2781,"ĠCred":2782,"ĠCoumba":2783,"ĠFor":2784,"Ġ133":2785,"Ġ155":2786,"Ġ111":2787,"Ġ121":2788,"ĠVal":2789,"ĠPost":2790,"ĠLotissementissement":2791,"Ġ109":2792,"ĠNdao":2793,"991":2794,"994":2795,"995":2796,"998":2797,"504":2798,"505":2799,"506":2800,"897":2801,"592":2802,"596":2803,"598":2804,"909":2805,"582":2806,"583":2807,"ĠMoust":2808,"571":2809,"572":2810,"576":2811,"983":2812,"986":2813,"972":2814,"ĠAli":2815,"954":2816,"ĠGenerale":2817,"ĠEaux":2818,"ĠTeyl":2819,"ologie":2820,"ĠAbdel":2821,"ĠHabib":2822,"ĠEnseignants":2823,"ĠRanrhar":2824,"Appartement":2825,"ĠCredit":2826,"Dalifort":2827,"Nouveau":2828,"az":2829,"du":2830,"vs":2831,"ĠStele":2832,"ĠNouveau":2833,"inus":2834,"Ġ123":2835,"Ġ131":2836,"ĠBign":2837,"oriz":2838,"ceinte":2839,"ĠDieupeul":2840,"ĠHoriz":2841,"ssa":2842,"ĠLas":2843,"ĠOr":2844,"ĠOran":2845,"ĠMermozsacre":2846,"ĠThio":2847,"ĠHannbel":2848,"ĠSoce":2849,"ĠSoda":2850,"997":2851,"593":2852,"ĠPetersen":2853,"902":2854,"907":2855,"Ġ201":2856,"982":2857,"ĠAliou":2858,"951":2859,"953":2860,"871":2861,"872":2862,"874":2863,"igo":2864,"ĠRail":2865,"ĠMaison":2866,"ĠTelec":2867,"ĠPetite":2868,"ĠSupermarche":2869,"ĠTechnopole":2870,"ĠMazout":2871,"ĠOmvs":2872,"ĠDavid":2873,"ĠTeylium":2874,"ĠHorizon":2875,"ĠTelecom":2876,"Bel":2877,"Mbao":2878,"Parcelle":2879,"Re":2880,"Se":2881,"no":2882,"ument":2883,"ary":2884,"ĠCe":2885,"ĠLac":2886,"ĠMam":2887,"inot":2888,"Ġ114":2889,"Ġ167":2890,"ĠGont":2891,"icourt":2892,"ĠTage":2893,"ĠBoubess":2894,"ardin":2895,"ĠLah":2896,"Ġ83":2897,"ĠMalika":2898,"903":2899,"904":2900,"906":2901,"981":2902,"984":2903,"971":2904,"973":2905,"ĠSeb":2906,"956":2907,"ĠSalva":2908,"876":2909,"ĠNational":2910,"ĠBanque":2911,"ĠMaginot":2912,"ĠSoweto":2913,"ĠConach":2914,"Pointe":2915,"ĠPalmas":2916,"ĠDabakh":2917,"ĠBignona":2918,"ĠOrange":2919,"Bureau":2920,"Canal":2921,"Les":2922,"Soprim":2923,"abe":2924,"kou":2925,"lan":2926,"mand":2927,"umette":2928,"ĠNia":2929,"oug":2930,"ĠPeul":2931,"Ġ160":2932,"Ġ132":2933,"Ġ210":2934,"Ġ222":2935,"ĠGab":2936,"ĠTigo":2937,"acinthe":2938,"ssane":2939,"Ġ103":2940,"iaba":2941,"ĠThier":2942,"ĠGrands":2943,"908":2944,"ĠMoulin":2945,"974":2946,"952":2947,"ĠMassamba":2948,"081":2949,"084":2950,"ouma":2951,"isson":2952,"ĠRoume":2953,"ĠFranca":2954,"ĠCimetieres":2955,"Marche":2956,"ĠMonument":2957,"Universite":2958,"ĠAllumette":2959,"ĠInternational":2960,"ulture":2961,"ĠPhilipp":2962,"ĠClub":2963,"ĠMontagne":2964,"Petit":2965,"ĠValmy":2966,"Aut":2967,"Bar":2968,"sour":2969,"ux":2970,"ugal":2971,"zz":2972,"ĠDen":2973,"enn":2974,"ĠSip":2975,"ĠSun":2976,"ĠShs":2977,"uel":2978,"ĠLona":2979,"ĠMang":2980,"let":2981,"ĠPlle":2982,"ano":2983,"inal":2984,"Ġ127":2985,"Ġ129":2986,"Ġ165":2987,"Ġ137":2988,"ĠBiche":2989,"iterie":2990,"ĠIle":2991,"see":2992,"ĠDia":2993,"ĠKat":2994,"ĠEnceinte":2995,"ĠJa":2996,"ĠZola":2997,"ĠSoca":2998,"ĠLest":2999,"ĠNdeu":3000,"asis":3001,"Ġ205":3002,"ĠCaille":3003,"082":3004,"083":3005,"ĠArmand":3006,"Entre":3007,"ĠBlan":3008,"gnicourt":3009,"ouvelle":3010,"ĠNimzath":3011,"ĠMansour":3012,"Malika":3013,"ĠThierno":3014,"ĠPhilippe":3015,"Bargny":3016,"ĠLonase":3017,"ĠBiches":3018,"ĠSocabe":3019,"Arafat":3020,"Ho":3021,"In":3022,"ah":3023,"ball":3024,"grand":3025,"hiou":3026,"km":3027,"mer":3028,"ĠDina":3029,"ala":3030,"ĠCse":3031,"erine":3032,"ĠEch":3033,"ĠPape":3034,"Ġ116":3035,"Ġ139":3036,"Ġ169":3037,"Ġ136":3038,"rection":3039,"ĠVel":3040,"ong":3041,"iel":3042,"ĠDirection":3043,"ssou":3044,"agement":3045,"ĠJamba":3046,"ĠJardin":3047,"ikotane":3048,"chan":3049,"inaw":3050,"ĠAngrand":3051,"ĠSociale":3052,"assage":3053,"ĠUno":3054,"ĠUnies":3055,"ĠAlia":3056,"Ġ173":3057,"ĠKhouma":3058,"anga":3059,"angeur":3060,"ĠTeranga":3061,"ĠWakhinane":3062,"ĠDiamb":3063,"ĠCommerciale":3064,"ĠNations":3065,"ĠJaune":3066,"ĠAfric":3067,"ĠThese":3068,"ĠAuchan":3069,"ault":3070,"ĠDouane":3071,"icha":3072,"ĠVerte":3073,"ĠBugnicourt":3074,"ĠFootball":3075,"ĠMoustaph":3076,"ĠGontran":3077,"ĠMoulins":3078,"ĠAllumettes":3079,"Autoroute":3080,"ĠSunugal":3081,"ĠMangin":3082,"ĠSocabeg":3083,"Hotel":3084,"Sa":3085,"gl":3086,"hiaba":3087,"iya":3088,"lla":3089,"qu":3090,"rousse":3091,"yr":3092,"aro":3093,"ĠSid":3094,"ĠNgal":3095,"ĠAs":3096,"ĠAicha":3097,"oune":3098,"ĠCine":3099,"ĠMith":3100,"ĠFila":3101,"Ġ122":3102,"Ġ190":3103,"ĠBamb":3104,"ĠRues":3105,"ilor":3106,"Ġ212":3107,"Ġ257":3108,"ĠGaye":3109,"ĠGuil":3110,"ĠCoop":3111,"aute":3112,"ĠFoyer":3113,"rosso":3114,"gus":3115,"ĠThiouth":3116,"ĠSod":3117,"ĠCommun":3118,"ĠBiscu":3119,"ĠResidences":3120,"ĠSaf":3121,"ĠSec":3122,"ĠAbdoul":3123,"ĠIslam":3124,"ĠNiakh":3125,"ĠNioro":3126,"araf":3127,"ĠVoie":3128,"Comm":3129,"Complexe":3130,"ĠLaperine":3131,"ĠMinistere":3132,"xaay":3133,"ĠDepot":3134,"louis":3135,"ĠConachap":3136,"abeth":3137,"ĠEchangeur":3138,"glise":3139,"ĠGuillet":3140,"rossogui":3141,"Bour":3142,"Cab":3143,"Gare":3144,"Stele":3145,"ais":3146,"derkle":3147,"gagne":3148,"nt":3149,"ok":3150,"ps":3151,"ri":3152,"ring":3153,"sa":3154,"vc":3155,"vd":3156,"ĠSn":3157,"ĠSis":3158,"ĠRia":3159,"ĠRiv":3160,"ĠCulture":3161,"ĠPat":3162,"ĠDeux":3163,"inat":3164,"Ġ117":3165,"Ġ128":3166,"Ġ168":3167,"Ġ159":3168,"Ġ198":3169,"ĠBag":3170,"ĠBass":3171,"Ġ227":3172,"Ġ311":3173,"ĠTp":3174,"ĠTran":3175,"ĠOasis":3176,"ĠJvc":3177,"ĠAssur":3178,"lmadie":3179,"ĠAnne":3180,"ĠNdiou":3181,"ĠUrba":3182,"ĠSylla":3183,"ĠSaintlouis":3184,"Ġ207":3185,"ĠElh":3186,"ĠKhar":3187,"ĠDieuppeulderkle":3188,"Ġ4023":3189,"ĠArret":3190,"ĠSeras":3191,"frique":3192,"istrict":3193,"ĠFadh":3194,"ĠCasier":3195,"ĠCastel":3196,"ĠGrd":3197,"ĠKebemer":3198,"Camp":3199,"irail":3200,"Castor":3201,"ĠDegagement":3202,"Station":3203,"ĠManel":3204,"ĠKaw":3205,"ĠMonte":3206,"Ġ12500":3207,"Ġ14524":3208,"ĠLapr":3209,"ĠElysee":3210,"iii":3211,"ĠPyram":3212,"ĠTerminus":3213,"ĠSkirring":3214,"ĠAlize":3215,"ĠDiambars":3216,"ĠMoustapha":3217,"ĠCinema":3218,"ĠAssurance":3219,"Dire":3220,"dad":3221,"lant":3222,"of":3223,"rond":3224,"riere":3225,"xiii":3226,"artement":3227,"enguene":3228,"ĠSidence":3229,"oudo":3230,"ĠCf":3231,"ĠCham":3232,"eration":3233,"ĠEglise":3234,"ĠMad":3235,"ĠMaco":3236,"ĠPassage":3237,"ĠDeau":3238,"Ġ134":3239,"Ġ166":3240,"Ġ189":3241,"ĠBande":3242,"isabeth":3243,"orm":3244,"ĠGar":3245,"ĠXxiii":3246,"ĠDiack":3247,"ĠHb":3248,"ĠLaz":3249,"ĠOkm":3250,"Ġ00":3251,"ĠAssen":3252,"ĠPeage":3253,"ĠMbenguene":3254,"cien":3255,"Ġ181":3256,"Ġ176":3257,"ĠToure":3258,"Ġ191":3259,"ĠArame":3260,"ĠNgom":3261,"ĠSanitaire":3262,"ĠFatou":3263,"ĠCardinal":3264,"ĠLibasse":3265,"irafrique":3266,"ĠBcc":3267,"uld":3268,"ĠSouf":3269,"ĠSous":3270,"ĠConse":3271,"ĠClairafrique":3272,"ĠMarieme":3273,"ĠPrest":3274,"ĠArtisanal":3275,"ĠKhaira":3276,"ĠPeulh":3277,"ĠVeling":3278,"ĠJambaars":3279,"Bourguiba":3280,"ĠPyramid":3281,"oudoss":3282,"Com":3283,"Liber":3284,"Ucad":3285,"aie":3286,"cale":3287,"ecine":3288,"iy":3289,"jj":3290,"mo":3291,"nar":3292,"ti":3293,"yn":3294,"yoff":3295,"ĠSiga":3296,"ĠSica":3297,"ĠAere":3298,"ĠCat":3299,"ĠCde":3300,"erne":3301,"ĠLots":3302,"ĠEd":3303,"ĠEre":3304,"ĠMas":3305,"ĠMend":3306,"ĠPot":3307,"ĠPinet":3308,"anine":3309,"Ġ118":3310,"Ġ135":3311,"ress":3312,"ĠBal":3313,"ĠBall":3314,"ĠBus":3315,"ĠBab":3316,"ĠBasse":3317,"ĠBuld":3318,"Ġ224":3319,"Ġ250":3320,"Ġ231":3321,"ĠGl":3322,"ĠGad":3323,"amique":3324,"ĠFaye":3325,"ĠHa":3326,"ĠKer":3327,"ĠKenn":3328,"Ġ500":3329,"ĠFoirail":3330,"ĠUba":3331,"ĠExcl":3332,"ĠJap":3333,"ĠAmb":3334,"ĠNde":3335,"asin":3336,"Ġ141":3337,"Ġ142":3338,"Ġ143":3339,"ĠColis":3340,"ĠElisabeth":3341,"ĠKhoudoss":3342,"ĠDiama":3343,"ĠArrond":3344,"ĠCommerce":3345,"ĠMess":3346,"ĠSarrault":3347,"ĠBank":3348,"Thies":3349,"cotte":3350,"Diamalaye":3351,"ĠDah":3352,"ĠEnfants":3353,"ĠJohn":3354,"ĠThiam":3355,"Ancienne":3356,"ĠSorano":3357,"ĠPetits":3358,"ĠImmo":3359,"ĠAtlant":3360,"ĠTamaro":3361,"ĠLocal":3362,"ĠMamadou":3363,"ĠDenain":3364,"Cabinet":3365,"ĠRivon":3366,"ĠElhadji":3367,"Direction":3368,"ĠMacodou":3369,"ĠAssenies":3370,"ĠConseil":3371,"ĠVelingara":3372,"jjar":3373,"ĠMascl":3374,"ĠMendy":3375,"ĠGadaye":3376,"ĠExclus":3377,"211":3378,"311":3379,"Apecsy":3380,"District":3381,"ate":3382,"dral":3383,"ieu":3384,"lene":3385,"nos":3386,"oir":3387,"ts":3388,"ved":3389,"wa":3390,"ĠDg":3391,"ĠDie":3392,"ĠDame":3393,"ĠSamba":3394,"ĠSacr":3395,"ĠNab":3396,"ĠRip":3397,"ĠCyr":3398,"eric":3399,"erat":3400,"ĠMach":3401,"ĠPed":3402,"anale":3403,"Ġ140":3404,"Ġ148":3405,"Ġ138":3406,"Ġ149":3407,"Ġ170":3408,"Ġ146":3409,"ĠBara":3410,"euf":3411,"Ġ219":3412,"Ġ245":3413,"Ġ278":3414,"Ġ2000":3415,"ĠGy":3416,"ieme":3417,"amine":3418,"ĠIssa":3419,"Ġ300":3420,"ĠDiadji":3421,"acine":3422,"ĠObel":3423,"levage":3424,"hedral":3425,"anding":3426,"edy":3427,"ĠAmeric":3428,"oll":3429,"ally":3430,"ĠCheick":3431,"ĠMbo":3432,"ĠSahm":3433,"ĠReal":3434,"ĠBelved":3435,"ĠStanding":3436,"Ġ171":3437,"ĠKhor":3438,"angle":3439,"ĠSedhiou":3440,"istra":3441,"ĠGeorge":3442,"ĠRahm":3443,"ĠMezz":3444,"ambars":3445,"ĠMaguil":3446,"ĠBarry":3447,"oulene":3448,"ĠGuinaw":3449,"ĠInstitut":3450,"Diamaguene":3451,"ĠPalais":3452,"ĠSuite":3453,"ĠSouk":3454,"Ġ10700":3455,"ĠClaud":3456,"ĠFeraud":3457,"ounoune":3458,"ĠCabinet":3459,"ĠPostaux":3460,"ĠNiasse":3461,"ĠGabon":3462,"ĠKatia":3463,"ĠJaxaay":3464,"Institut":3465,"ĠAfricaine":3466,"ĠBiscuiterie":3467,"ĠRiaom":3468,"ĠLaprade":3469,"Comico":3470,"Libert":3471,"ĠCathedral":3472,"ĠAmbroise":3473,"ĠArrondissement":3474,"ĠDahra":3475,"ĠRivonia":3476,"ĠMasclary":3477,"ĠCyrnos":3478,"erative":3479,"ĠObelisque":3480,"ĠCathedrale":3481,"09":3482,"527":3483,"Bl":3484,"Ch":3485,"Ile":3486,"Imp":3487,"Niary":3488,"cas":3489,"hing":3490,"nass":3491,"rine":3492,"rain":3493,"sal":3494,"ser":3495,"sara":3496,"tique":3497,"ver":3498,"ĠQu":3499,"ĠSci":3500,"alo":3501,"ĠAxa":3502,"ĠRiya":3503,"ĠCisse":3504,"ĠLan":3505,"ĠLakh":3506,"ĠElevage":3507,"ĠMor":3508,"ĠFn":3509,"Ġ130":3510,"Ġ126":3511,"Ġ180":3512,"lair":3513,"ĠBalla":3514,"ĠVill":3515,"Ġ214":3516,"Ġ230":3517,"Ġ255":3518,"Ġ235":3519,"ĠGa":3520,"ĠFac":3521,"ĠHen":3522,"ĠUf":3523,"Ġ9653":3524,"ĠJust":3525,"urite":3526,"chot":3527,"ĠThiar":3528,"oura":3529,"ashing":3530,"assoul":3531,"ĠCommiss":3532,"ĠUnit":3533,"Lotissementissement":3534,"ĠMboup":3535,"ĠRegus":3536,"Ġ153":3537,"Ġ202":3538,"Ġ208":3539,"ĠCarriere":3540,"ĠMouss":3541,"ĠAbatt":3542,"apec":3543,"ĠWashing":3544,"ĠDialaw":3545,"ĠPoly":3546,"ĠGounass":3547,"ĠMagasin":3548,"ĠHyacinthe":3549,"Ġ8635":3550,"allah":3551,"ĠDans":3552,"ĠBess":3553,"Ġ11000":3554,"ĠAdministra":3555,"ĠEnfacede":3556,"Escale":3557,"Maristes":3558,"Ġ12000":3559,"ĠArtisanale":3560,"ĠPyrot":3561,"ariat":3562,"ĠSanthiaba":3563,"ĠLahad":3564,"ĠBlanchot":3565,"Saint":3566,"ĠCooperative":3567,"ĠSafco":3568,"ĠSecurite":3569,"Commune":3570,"inatoul":3571,"ĠPotou":3572,"ĠBallon":3573,"ĠKennedy":3574,"ĠAmericain":3575,"ĠBelvedere":3576,"ĠMezzanine":3577,"ĠClaudel":3578,"Bloc":3579,"Impasse":3580,"ĠCommissariat":3581,"ĠWashington":3582,"05":3583,"321":3584,"568":3585,"Ar":3586,"Foire":3587,"Fith":3588,"Gu":3589,"Le":3590,"Nd":3591,"Ni":3592,"Non":3593,"Qtier":3594,"ail":3595,"ase":3596,"beu":3597,"gy":3598,"gent":3599,"gne":3600,"iro":3601,"jo":3602,"sane":3603,"sao":3604,"ĠDal":3605,"ĠSd":3606,"ĠSon":3607,"ĠNa":3608,"ĠAlmadie":3609,"ĠRes":3610,"ĠRoport":3611,"ĠRab":3612,"ĠCt":3613,"ĠCor":3614,"ĠCiv":3615,"ĠCto":3616,"ĠCvd":3617,"ĠLho":3618,"ĠEmbarcadere":3619,"ĠMs":3620,"ĠMand":3621,"ĠMut":3622,"ĠMaka":3623,"ĠPn":3624,"ĠPan":3625,"ĠPlan":3626,"aning":3627,"ĠFed":3628,"ins":3629,"Ġ175":3630,"Ġ195":3631,"ĠBrac":3632,"isci":3633,"ĠVue":3634,"ĠVoile":3635,"eux":3636,"ils":3637,"Ġ215":3638,"Ġ223":3639,"Ġ200":3640,"Ġ249":3641,"Ġ246":3642,"Ġ290":3643,"Ġ284":3644,"Ġ2298":3645,"ĠGall":3646,"ĠIp":3647,"Ġ327":3648,"ĠTaco":3649,"ĠCocot":3650,"ffrine":3651,"offre":3652,"base":3653,"ĠOff":3654,"het":3655,"ĠMare":3656,"ĠMarn":3657,"ĠMareme":3658,"ĠJoffre":3659,"ortie":3660,"olof":3661,"ĠMedinatoul":3662,"ĠSoc":3663,"ĠMalamine":3664,"Ġ156":3665,"Ġ206":3666,"ĠMouna":3667,"ĠSekou":3668,"Ġ182":3669,"ĠYeng":3670,"ĠYacine":3671,"Ġ172":3672,"Ġ174":3673,"Ġ402":3674,"ĠBatrain":3675,"Dieupeul":3676,"ieni":3677,"Plateau":3678,"ĠNianing":3679,"ĠFadiouth":3680,"ĠSomisci":3681,"ĠBaie":3682,"ĠKaffrine":3683,"ĠOurossogui":3684,"ĠGoel":3685,"ĠTerme":3686,"ĠSkiring":3687,"ĠFonc":3688,"ĠAcote":3689,"Seb":3690,"ĠCem":3691,"ougou":3692,"ĠSipress":3693,"Entree":3694,"ĠNgalandou":3695,"ĠBagdad":3696,"ĠTrans":3697,"ĠAnnexe":3698,"ĠNdioum":3699,"ĠMonteil":3700,"iyou":3701,"ĠBabacar":3702,"ĠHajjar":3703,"ĠMessag":3704,"ĠMaguilene":3705,"ĠPyrothe":3706,"ĠLhotel":3707,"ĠBrachet":3708,"ĠCocotiers":3709,"ĠYengoulene":3710,"1140":3711,"1180":3712,"2100":3713,"2300":3714,"Baie":3715,"Embarcadere":3716,"Sene":3717,"Tally":3718,"aya":3719,"bar":3720,"cn":3721,"cole":3722,"colobane":3723,"dj":3724,"dy":3725,"gie":3726,"hopital":3727,"ial":3728,"iat":3729,"ka":3730,"lissement":3731,"pa":3732,"pt":3733,"pco":3734,"ris":3735,"sm":3736,"sar":3737,"senal":3738,"vue":3739,"ĠDd":3740,"ĠDard":3741,"enue":3742,"ĠNouvelle":3743,"ĠAh":3744,"ĠAk":3745,"ouda":3746,"oussou":3747,"ĠRn":3748,"ĠRassoul":3749,"ĠCot":3750,"ĠChar":3751,"ĠLhopital":3752,"ĠEss":3753,"ĠEpi":3754,"ĠMil":3755,"ĠMour":3756,"lex":3757,"ley":3758,"anada":3759,"ĠDess":3760,"Ġ119":3761,"Ġ178":3762,"Ġ213":3763,"Ġ217":3764,"Ġ228":3765,"Ġ268":3766,"Ġ211":3767,"Ġ234":3768,"Ġ270":3769,"Ġ242":3770,"oris":3771,"oramique":3772,"ĠGra":3773,"Ġ399":3774,"ibya":3775,"bleau":3776,"adisson":3777,"Ġ478":3778,"ssas":3779,"Ġ670":3780,"atre":3781,"lman":3782,"ĠOeuf":3783,"iness":3784,"edougou":3785,"Ġ9976":3786,"ĠJambars":3787,"ĠJoris":3788,"Ġ10000":3789,"chal":3790,"ĠMedecine":3791,"ĠBourgui":3792,"ĠSole":3793,"ĠNdama":3794,"obil":3795,"onty":3796,"ĠLamy":3797,"imat":3798,"Ġ151":3799,"ĠXew":3800,"omb":3801,"ĠFasscolobane":3802,"ĠSepco":3803,"pement":3804,"ĠToubab":3805,"ĠWoro":3806,"Ġ302":3807,"illon":3808,"teurs":3809,"ĠRondpoint":3810,"ĠSergent":3811,"abis":3812,"ĠBriere":3813,"ĠSarl":3814,"ĠAux":3815,"isserie":3816,"ĠBay":3817,"igny":3818,"Ġ18522":3819,"ĠNoel":3820,"ĠBoa":3821,"ĠSuper":3822,"ĠGossas":3823,"ĠBellevue":3824,"ĠDarabis":3825,"ĠThiossane":3826,"ĠFrancais":3827,"ĠFrancaise":3828,"ĠNdeugagne":3829,"ĠBambilor":3830,"ĠCommunaute":3831,"ĠCulturel":3832,"ĠPatisserie":3833,"ĠGarage":3834,"ĠPrestation":3835,"ĠBulders":3836,"ĠJapon":3837,"ĠExclusive":3838,"ĠMbode":3839,"ĠLakhsane":3840,"ĠThiargane":3841,"ĠRaby":3842,"ĠPanoramique":3843,"ĠFederation":3844,"ĠMarechal":3845,"ĠDessus":3846,"1100":3847,"1120":3848,"1150":3849,"1130":3850,"1190":3851,"1160":3852,"1170":3853,"2120":3854,"2150":3855,"2140":3856,"2180":3857,"2130":3858,"2190":3859,"2160":3860,"2170":3861,"3100":3862,"3120":3863,"3150":3864,"3140":3865,"3180":3866,"3130":3867,"3190":3868,"3160":3869,"3170":3870,"3300":3871,"3260":3872,"3200":3873,"3240":3874,"3290":3875,"3220":3876,"3270":3877,"Ban":3878,"Bat":3879,"Dj":3880,"Lac":3881,"Min":3882,"Ng":3883,"Nouvelle":3884,"Qrt":3885,"Sur":3886,"ger":3887,"ieur":3888,"kr":3889,"oue":3890,"oisse":3891,"port":3892,"sir":3893,"xim":3894,"ys":3895,"ĠDang":3896,"ĠSao":3897,"ĠSortie":3898,"akou":3899,"ĠNaf":3900,"ĠAero":3901,"ĠRc":3902,"ĠRs":3903,"ĠRur":3904,"ĠRadio":3905,"ĠRadisson":3906,"ĠCro":3907,"ĠCiel":3908,"ĠCanada":3909,"ĠMisse":3910,"ĠMao":3911,"ĠMiss":3912,"ĠPl":3913,"ĠPt":3914,"ĠPel":3915,"ĠPubl":3916,"ani":3917,"ĠFal":3918,"ĠFamil":3919,"india":3920,"Ġ147":3921,"Ġ179":3922,"Ġ144":3923,"ĠBatte":3924,"ĠBet":3925,"Ġ216":3926,"Ġ225":3927,"Ġ240":3928,"Ġ265":3929,"Ġ239":3930,"Ġ232":3931,"Ġ259":3932,"Ġ271":3933,"amance":3934,"ĠIm":3935,"Ġ330":3936,"Ġ333":3937,"Ġ380":3938,"Ġ363":3939,"Ġ381":3940,"ses":3941,"ĠFaw":3942,"ĠDiok":3943,"ĠHou":3944,"ĠHoll":3945,"Ġ414":3946,"Ġ4313":3947,"ĠKedougou":3948,"Ġ516":3949,"Ġ527":3950,"Ġ570":3951,"ffaire":3952,"ĠFore":3953,"met":3954,"ĠExp":3955,"ita":3956,"rom":3957,"ĠAmit":3958,"ĠAmaz":3959,"Routes":3960,"ĠZe":3961,"ĠLecole":3962,"ĠMbar":3963,"Ġ158":3964,"ĠPresde":3965,"Ġ204":3966,"Ġ2019":3967,"ĠColy":3968,"ĠParoisse":3969,"ingue":3970,"Ġ184":3971,"ĠYene":3972,"ĠYaye":3973,"ĠYoro":3974,"ĠYoussou":3975,"ĠCaisse":3976,"ĠCafe":3977,"ĠMamelle":3978,"ĠWade":3979,"ĠGaule":3980,"ĠProm":3981,"ĠProvisoirement":3982,"andoulene":3983,"Ġ2566":3984,"ĠArc":3985,"iougne":3986,"ourounar":3987,"ĠHassane":3988,"etou":3989,"ĠBarsal":3990,"ĠCaserne":3991,"oundiougne":3992,"ĠInter":3993,"ĠDaouda":3994,"ĠMatar":3995,"ĠBereng":3996,"ĠHydrobase":3997,"ĠBox":3998,"ĠBoigny":3999,"engue":4000,"ĠPrem":4001,"ĠBuge":4002,"ĠInternationale":4003,"fess":4004,"ĠTaif":4005,"ĠTableau":4006,"ĠOilibya":4007,"ĠTamsir":4008,"ĠFonction":4009,"ĠCitydia":4010,"ĠOnas":4011,"ĠForail":4012,"ĠRails":4013,"ĠKawsara":4014,"ĠCfao":4015,"ĠLazare":4016,"ĠEdk":4017,"ĠBusiness":4018,"ĠNdeye":4019,"ĠJustice":4020,"ĠPolyc":4021,"ĠAdministrateurs":4022,"ĠCivils":4023,"ĠMandiaye":4024,"ĠMutuel":4025,"ĠMarnane":4026,"ĠMounaw":4027,"Senegal":4028,"ĠGraine":4029,"ĠSoleil":4030,"Batiment":4031,"Ministere":4032,"ximite":4033,"ĠMissette":4034,"ĠMaodo":4035,"ĠDiokoul":4036,"ĠBarsalam":4037,"ĠBerenger":4038,"4373":4039,"Au":4040,"Az":4041,"Bene":4042,"Car":4043,"Chn":4044,"Est":4045,"Jet":4046,"La":4047,"Lots":4048,"Sonepi":4049,"Virage":4050,"Wakhinane":4051,"Yarakh":4052,"din":4053,"dane":4054,"est":4055,"ggy":4056,"hio":4057,"ige":4058,"kk":4059,"klin":4060,"ket":4061,"line":4062,"mation":4063,"rd":4064,"tension":4065,"vre":4066,"ĠSop":4067,"alier":4068,"tes":4069,"ĠNb":4070,"ĠNorm":4071,"ĠRal":4072,"ĠRade":4073,"ĠRandoulene":4074,"ĠCher":4075,"ĠLt":4076,"ĠMack":4077,"anel":4078,"ĠFe":4079,"ĠFime":4080,"ĠFoundiougne":4081,"Ġ197":4082,"ĠBia":4083,"ilene":4084,"Ġ220":4085,"Ġ233":4086,"Ġ248":4087,"Ġ237":4088,"Ġ236":4089,"Ġ280":4090,"Ġ256":4091,"orne":4092,"ĠGain":4093,"ĠGond":4094,"illabert":4095,"Ġ324":4096,"Ġ325":4097,"Ġ362":4098,"Ġ391":4099,"venu":4100,"ĠTres":4101,"ĠTpe":4102,"ĠTamba":4103,"ĠCoch":4104,"apar":4105,"ĠHold":4106,"Ġ400":4107,"Ġ448":4108,"Ġ459":4109,"ĠBoutique":4110,"ĠKo":4111,"3085":4112,"Ġ517":4113,"Ġ524":4114,"stier":4115,"stos":4116,"ĠOp":4117,"ĠMarit":4118,"ĠMargue":4119,"ĠUcad":4120,"ĠEnd":4121,"ĠJaraf":4122,"Ġ000":4123,"ĠAmal":4124,"iaw":4125,"ĠAncien":4126,"ĠSok":4127,"ĠNdin":4128,"ĠNdia":4129,"ĠNdiar":4130,"asn":4131,"ĠUrab":4132,"ĠMballo":4133,"ĠMbengue":4134,"ĠSav":4135,"Ġ152":4136,"ĠBelf":4137,"ĠCarre":4138,"ĠFron":4139,"ĠDioum":4140,"iarry":4141,"ipe":4142,"Boucotte":4143,"ĠAlima":4144,"ĠAltern":4145,"Ġ186":4146,"ĠAbou":4147,"ĠYacinthe":4148,"angue":4149,"ĠWar":4150,"ĠProximite":4151,"Ġ3085":4152,"illy":4153,"Ġ196":4154,"ĠGalass":4155,"ĠHoggy":4156,"giene":4157,"ĠNgapar":4158,"abrousse":4159,"ĠBata":4160,"Rondpoint":4161,"oumel":4162,"zelle":4163,"ĠIsle":4164,"ĠBira":4165,"cture":4166,"ĠCadre":4167,"ĠCentrale":4168,"ĠHygiene":4169,"ĠCasamance":4170,"ĠRouge":4171,"ĠGuillabert":4172,"ĠPalene":4173,"Ġ8613":4174,"agoudane":4175,"ĠFranklin":4176,"ĠPerse":4177,"ouvelles":4178,"ĠBastos":4179,"ĠXcf":4180,"Ġ9985":4181,"Ġ9977":4182,"ĠApix":4183,"ulte":4184,"ĠManuel":4185,"ĠLobat":4186,"ryum":4187,"ĠPhase":4188,"ĠClaire":4189,"Ġ14563":4190,"ĠAtryum":4191,"ĠCours":4192,"Poste":4193,"how":4194,"ĠTri":4195,"ĠNdiaga":4196,"ĠSapi":4197,"ĠDepartement":4198,"ĠLocaux":4199,"ĠFormation":4200,"ĠSebikotane":4201,"ĠFilaos":4202,"ĠUrbain":4203,"ĠDiacksao":4204,"Ġ00221":4205,"ĠBalley":4206,"ĠKeretou":4207,"ĠLansar":4208,"ĠGazelle":4209,"ĠHenry":4210,"ĠAbattoir":4211,"ĠGallieni":4212,"ĠFoncier":4213,"Sebikotane":4214,"ĠMessageries":4215,"ĠMilitaire":4216,"ĠMouride":4217,"Banlieue":4218,"ĠDangou":4219,"ĠRurale":4220,"ĠPublic":4221,"ffaires":4222,"ĠForestier":4223,"ĠMbargane":4224,"ĠBugeaud":4225,"ĠMounawara":4226,"Azur":4227,"Carrefour":4228,"Chnu":4229,"ĠNormale":4230,"ĠFimela":4231,"ĠBiao":4232,"ĠGainde":4233,"ĠTresor":4234,"ĠCochapec":4235,"ĠHolding":4236,"ĠMaritime":4237,"ĠUrabm":4238,"ĠAlternance":4239,"529":4240,"Air":4241,"Bamb":4242,"Kao":4243,"Kounoune":4244,"Num":4245,"Ser":4246,"Term":4247,"Tour":4248,"ateau":4249,"aise":4250,"br":4251,"gar":4252,"gare":4253,"iff":4254,"iale":4255,"lix":4256,"lter":4257,"pis":4258,"und":4259,"uve":4260,"vert":4261,"zza":4262,"ĠDp":4263,"ĠDer":4264,"ĠDag":4265,"ĠDara":4266,"ĠDagoudane":4267,"enus":4268,"ĠSindia":4269,"ĠSenegalaise":4270,"ĠNani":4271,"ĠAg":4272,"ĠAlm":4273,"ĠAid":4274,"oupe":4275,"ĠReu":4276,"ĠCont":4277,"ĠCoul":4278,"ĠCath":4279,"ĠLag":4280,"ĠEqu":4281,"ĠMau":4282,"ĠMus":4283,"lein":4284,"ĠPie":4285,"ĠPublique":4286,"ĠPout":4287,"ĠPlein":4288,"ĠFm":4289,"ĠFis":4290,"ĠFith":4291,"ĠFoug":4292,"Ġ199":4293,"Ġ164":4294,"ĠBle":4295,"ĠBord":4296,"ĠBas":4297,"ĠVol":4298,"Ġ218":4299,"Ġ269":4300,"Ġ279":4301,"Ġ298":4302,"Ġ243":4303,"Ġ273":4304,"Ġ282":4305,"orom":4306,"orama":4307,"ĠGs":4308,"ĠGes":4309,"ĠIta":4310,"ĠXandar":4311,"Ġ310":4312,"Ġ322":4313,"Ġ328":4314,"Ġ326":4315,"Ġ355":4316,"Ġ349":4317,"Ġ378":4318,"Ġ379":4319,"Ġ361":4320,"ĠTag":4321,"ĠTob":4322,"ĠTra":4323,"ĠTilene":4324,"ague":4325,"ĠCode":4326,"ĠCosec":4327,"ĠDiakh":4328,"annah":4329,"10558":4330,"ĠHar":4331,"ĠHal":4332,"ado":4333,"Ġ467":4334,"Ġ445":4335,"Ġ477":4336,"Ġ453":4337,"Ġ471":4338,"Ġ482":4339,"Ġ4002":4340,"oppement":4341,"ĠBoune":4342,"Ġ646":4343,"Ġ694":4344,"Ġ673":4345,"ata":4346,"Ġ530":4347,"Ġ574":4348,"Ġ5658":4349,"ĠUpis":4350,"itte":4351,"ĠJus":4352,"Ġ0000":4353,"irou":4354,"irur":4355,"Ġ8115":4356,"Ġ8651":4357,"ĠAmsa":4358,"ĠAssain":4359,"oloff":4360,"ĠGrandyoff":4361,"taigne":4362,"ĠSos":4363,"ĠLeb":4364,"assa":4365,"ĠMalang":4366,"ĠUnivers":4367,"ĠPelle":4368,"ĠDjilly":4369,"ĠSyp":4370,"amecas":4371,"ĠUnites":4372,"omo":4373,"ĠParis":4374,"endel":4375,"Ġ183":4376,"uma":4377,"Ġ161":4378,"erolle":4379,"ĠTous":4380,"ĠAuto":4381,"ĠKhomb":4382,"ĠKhourounar":4383,"Ġ303":4384,"Ġ305":4385,"Ġ3013":4386,"ĠPompier":4387,"Ġ192":4388,"nabou":4389,"Ġ409":4390,"khaya":4391,"Ġ291":4392,"ĠArsenal":4393,"ĠSeynabou":4394,"ĠNga":4395,"ĠImpot":4396,"front":4397,"ĠBatimat":4398,"Ġ27155":4399,"Ġ505":4400,"Ġ50555":4401,"ĠAvant":4402,"ĠEscalier":4403,"pha":4404,"phoue":4405,"ĠBirima":4406,"ĠRoi":4407,"ĠRoyer":4408,"ĠHyp":4409,"ĠGuisse":4410,"Ġ8619":4411,"ĠMillon":4412,"ĠSamassa":4413,"ĠDouta":4414,"ĠBem":4415,"ĠBelair":4416,"Ġ99000":4417,"ĠNos":4418,"ĠDeggo":4419,"ĠKhady":4420,"ĠLyon":4421,"ĠKay":4422,"ĠNotre":4423,"ĠMontaigne":4424,"Toubab":4425,"Ġ11500":4426,"ercle":4427,"ĠFerdin":4428,"ĠImmobil":4429,"ĠMedicale":4430,"ĠTivaoune":4431,"ĠAllant":4432,"ĠTrain":4433,"Region":4434,"ĠCeour":4435,"ĠLahat":4436,"lanc":4437,"ĠDiawaye":4438,"ĠNdeun":4439,"ĠIslamique":4440,"ĠAssurances":4441,"ĠAtlantique":4442,"ĠMachala":4443,"ĠBallay":4444,"beuss":4445,"ĠDalal":4446,"ĠOffice":4447,"ĠPyrothecn":4448,"ĠEssar":4449,"ĠBayeux":4450,"Ngaparou":4451,"ĠRsidence":4452,"ĠHouphoue":4453,"ĠFonctionnaire":4454,"ĠPolyclinique":4455,"ĠBelfort":4456,"ĠCarreaux":4457,"ĠNgaparu":4458,"ĠTriangle":4459,"ĠAbattoirs":4460,"ĠDagorne":4461,"ĠAidara":4462,"ĠFiscal":4463,"ĠTaglou":4464,"irurgie":4465,"ĠKhombole":4466,"ĠHouphouet":4467,"4332":4468,"528":4469,"Bis":4470,"Bande":4471,"Cap":4472,"Dep":4473,"Khar":4474,"Ma":4475,"Mbo":4476,"Not":4477,"Ndia":4478,"Pe":4479,"Richard":4480,"Show":4481,"Tf":4482,"Terr":4483,"Tivaou":4484,"cou":4485,"dr":4486,"gm":4487,"hi":4488,"hou":4489,"hie":4490,"immeuble":4491,"ke":4492,"ki":4493,"nu":4494,"oa":4495,"oitte":4496,"pens":4497,"pendance":4498,"tal":4499,"val":4500,"vice":4501,"ville":4502,"xieme":4503,"yene":4504,"zy":4505,"zain":4506,"Ġ&":4507,"ĠDis":4508,"arma":4509,"ĠSel":4510,"ĠSco":4511,"eneuve":4512,"ĠNs":4513,"ĠNouvelles":4514,"ĠAf":4515,"ĠAla":4516,"ĠAth":4517,"ĠAyn":4518,"ĠAffaires":4519,"oud":4520,"ĠRh":4521,"ĠRuf":4522,"ĠCk":4523,"ĠCn":4524,"ĠCer":4525,"ĠCne":4526,"ĠCout":4527,"erins":4528,"ĠEmb":4529,"ĠMult":4530,"ĠMkr":4531,"les":4532,"ĠPul":4533,"ĠPref":4534,"ĠPamecas":4535,"anie":4536,"ĠDevel":4537,"ĠFan":4538,"ĠFin":4539,"ĠFeu":4540,"ĠFlix":4541,"ĠFarma":4542,"Ġ163":4543,"labou":4544,"reme":4545,"ĠBil":4546,"ĠBhs":4547,"ĠVie":4548,"ĠVent":4549,"ĠVia":4550,"ĠRuelle":4551,"Ġ226":4552,"Ġ266":4553,"Ġ297":4554,"Ġ263":4555,"Ġ287":4556,"Ġ262":4557,"Ġ276":4558,"Ġ2002":4559,"ĠGd":4560,"ĠGm":4561,"ĠGent":4562,"ĠGam":4563,"ĠGic":4564,"ĠGand":4565,"ĠGeni":4566,"ĠGaz":4567,"ĠGoumel":4568,"iete":4569,"ieye":4570,"ĠXb":4571,"ĠXf":4572,"Ġ312":4573,"Ġ313":4574,"Ġ314":4575,"Ġ320":4576,"Ġ368":4577,"Ġ332":4578,"Ġ346":4579,"Ġ390":4580,"Ġ354":4581,"Ġ373":4582,"Ġ374":4583,"Ġ352":4584,"Ġ393":4585,"venir":4586,"seille":4587,"ĠTop":4588,"mentaire":4589,"ĠComp":4590,"ibun":4591,"ĠDieng":4592,"ĠDiaraf":4593,"ĠDixieme":4594,"acadere":4595,"ĠAvenueenue":4596,"Ġ485":4597,"Ġ488":4598,"Ġ442":4599,"Ġ454":4600,"Ġ4373":4601,"ĠBoucotte":4602,"Ġ664":4603,"ĠKand":4604,"ĠKip":4605,"ĠKounoune":4606,"ĠKabrousse":4607,"aty":4608,"Ġ528":4609,"Ġ585":4610,"Ġ566":4611,"Ġ532":4612,"2082":4613,"ĠLaob":4614,"ĠOf":4615,"ines":4616,"hel":4617,"ĠMaris":4618,"ĠMarseille":4619,"ĠFoch":4620,"itt":4621,"itue":4622,"Ġ9256":4623,"Ġ9343":4624,"Ġ1050":4625,"Ġ10300":4626,"Ġ10200":4627,"Ġ10554":4628,"Ġ816":4629,"Ġ8175":4630,"Ġ8252":4631,"Ġ8454":4632,"urs":4633,"gora":4634,"olique":4635,"olbiac":4636,"6983":4637,"ĠSof":4638,"ĠSoci":4639,"asp":4640,"imod":4641,"Quart":4642,"udio":4643,"ikhotane":4644,"oco":4645,"ocap":4646,"ĠMboro":4647,"ĠSahel":4648,"ĠRegal":4649,"Ġ154":4650,"Ġ15000":4651,"ĠStudio":4652,"ĠMoussa":4653,"ĠMount":4654,"Ġ14000":4655,"ĠColline":4656,"omre":4657,"ĠDioul":4658,"ipse":4659,"ĠSebi":4660,"ĠAly":4661,"ĠAlpha":4662,"ĠYum":4663,"ĠToub":4664,"ĠGorom":4665,"ĠKhour":4666,"angane":4667,"ĠWore":4668,"ĠSedima":4669,"ĠProfess":4670,"Ġ3089":4671,"ĠPompiers":4672,"ĠGalerie":4673,"Ġ401":4674,"Ġ403":4675,"Ġ404":4676,"ĠCapa":4677,"Ġ251":4678,"Ġ253":4679,"Ġ292":4680,"Ġ293":4681,"Ġ296":4682,"ĠProlongement":4683,"Grande":4684,"ĠNgue":4685,"akha":4686,"akhira":4687,"ĠChan":4688,"ĠChnu":4689,"ĠIsm":4690,"ĠNiaga":4691,"ĠNiomre":4692,"ĠRaffanel":4693,"mbre":4694,"ĠRoom":4695,"ĠRokhaya":4696,"ignement":4697,"ĠShelter":4698,"Ġ1009":4699,"ĠGuendel":4700,"ĠInt":4701,"ĠMarth":4702,"ĠEntrep":4703,"ĠMaty":4704,"ĠPaillotes":4705,"ĠPds":4706,"ĠDeloitte":4707,"ĠToundoun":4708,"Ġ11524":4709,"ĠSupreme":4710,"ĠQrt":4711,"ĠVerd":4712,"ĠImmorama":4713,"Extension":4714,"ĠAinoumadi":4715,"ĠPrevert":4716,"ĠPrincipal":4717,"ĠCourses":4718,"ologique":4719,"ĠTribun":4720,"ĠSapco":4721,"ĠTaiba":4722,"ĠOnomo":4723,"ĠPostal":4724,"Sea":4725,"ĠNiass":4726,"ĠBlanc":4727,"ĠSidak":4728,"ĠSodalo":4729,"ĠNiakhal":4730,"ĠBassirou":4731,"ĠChamps":4732,"ĠMadieye":4733,"ĠNabil":4734,"ĠPediat":4735,"ĠRahmane":4736,"ĠSouky":4737,"ĠSoukane":4738,"ĠVilleneuve":4739,"ĠFaculte":4740,"ĠUfi":4741,"Leona":4742,"ĠSdv":4743,"ĠGoelan":4744,"ĠAcotede":4745,"ĠTransit":4746,"ĠXeweul":4747,"ĠSuperieu":4748,"ĠAerogare":4749,"ĠCroix":4750,"ĠMissira":4751,"ĠPlus":4752,"ĠPelerins":4753,"ĠBatterie":4754,"ĠBethio":4755,"ĠFawzain":4756,"ĠAmiti":4757,"inguere":4758,"ĠPremier":4759,"ĠCherif":4760,"ĠEndss":4761,"ĠSokone":4762,"ĠNdindi":4763,"asnack":4764,"Kaolack":4765,"ĠCatholique":4766,"ĠFougerolle":4767,"ĠVolant":4768,"ĠTobago":4769,"ĠJuste":4770,"ĠLeblanc":4771,"ĠUniversitaire":4772,"ĠNosoco":4773,"ĠLyonna":4774,"ĠNdeungagne":4775,"ĠFonctionnaires":4776,"Departement":4777,"pensaire":4778,"ĠDispensaire":4779,"ĠAlassane":4780,"ĠCneps":4781,"ĠCouture":4782,"ĠMultimod":4783,"ĠPrefe":4784,"ĠDeveloppement":4785,"laboul":4786,"ĠVents":4787,"ĠGamma":4788,"ĠLaobe":4789,"akhirate":4790,"ĠToundounp":4791,"ĠTribunal":4792,"ĠFawzaini":4793,"535":4794,"5658":4795,"615":4796,"8674":4797,"Ap":4798,"Almadie":4799,"Avenu":4800,"Eta":4801,"Gal":4802,"Im":4803,"Me":4804,"Ne":4805,"Nimz":4806,"Niarry":4807,"Pa":4808,"Plle":4809,"San":4810,"Sam":4811,"Som":4812,"Sant":4813,"Tri":4814,"Ziguinchor":4815,"agal":4816,"aille":4817,"bre":4818,"bis":4819,"bia":4820,"blissement":4821,"cord":4822,"com":4823,"ds":4824,"dor":4825,"fi":4826,"fm":4827,"fo":4828,"for":4829,"face":4830,"hl":4831,"iite":4832,"ija":4833,"ji":4834,"jx":4835,"ling":4836,"lipse":4837,"ms":4838,"mar":4839,"nance":4840,"nadio":4841,"olle":4842,"rue":4843,"ric":4844,"rime":4845,"tolbiac":4846,"ulman":4847,"via":4848,"yenne":4849,"ybar":4850,"ĠQuart":4851,"ĠDf":4852,"ĠDv":4853,"ĠDaka":4854,"ĠDhl":4855,"ente":4856,"engu":4857,"ĠSau":4858,"ĠSuar":4859,"ĠSol":4860,"ĠSain":4861,"ĠSim":4862,"ĠSise":4863,"ĠSira":4864,"ĠSuma":4865,"ĠSeneba":4866,"ĠNf":4867,"ĠNou":4868,"ĠNeur":4869,"ĠNep":4870,"ĠAa":4871,"ĠAba":4872,"ĠAise":4873,"ĠAtel":4874,"ĠAig":4875,"ĠAction":4876,"ĠAwa":4877,"ouye":4878,"ouca":4879,"ĠRen":4880,"ĠCc":4881,"ĠCou":4882,"ĠCcs":4883,"ĠCercle":4884,"ĠLix":4885,"ĠLars":4886,"ĠLena":4887,"ĠLimmeuble":4888,"ĠLinguere":4889,"ĠEdu":4890,"ĠMac":4891,"ĠMane":4892,"ĠMto":4893,"lele":4894,"ĠPad":4895,"anat":4896,"ĠDec":4897,"ĠDela":4898,"ĠFb":4899,"ĠFid":4900,"ĠFana":4901,"Ġ177":4902,"Ġ188":4903,"Ġ162":4904,"lais":4905,"ĠBrie":4906,"ĠBakh":4907,"ĠVnd":4908,"ĠViv":4909,"eule":4910,"ilcar":4911,"Ġ260":4912,"Ġ277":4913,"Ġ241":4914,"Ġ254":4915,"Ġ286":4916,"Ġ2151":4917,"Ġ2395":4918,"onne":4919,"ongor":4920,"onom":4921,"orat":4922,"orgui":4923,"ces":4924,"cell":4925,"cemet":4926,"ĠGn":4927,"ĠGia":4928,"ĠGama":4929,"ĠGokh":4930,"ĠGasp":4931,"entre":4932,"ites":4933,"itex":4934,"amd":4935,"Ġ329":4936,"Ġ338":4937,"Ġ369":4938,"Ġ321":4939,"Ġ331":4940,"Ġ397":4941,"Ġ343":4942,"Ġ395":4943,"Ġ382":4944,"Ġ3005":4945,"sepi":4946,"ĠTo":4947,"ĠTap":4948,"ĠCod":4949,"ĠComple":4950,"ĠCoiff":4951,"ibou":4952,"ĠDiaw":4953,"ĠDikk":4954,"ĠDiannah":4955,"act":4956,"1057":4957,"ĠHers":4958,"ĠHady":4959,"aus":4960,"Ġ455":4961,"Ġ440":4962,"Ġ439":4963,"Ġ437":4964,"Ġ469":4965,"Ġ444":4966,"Ġ487":4967,"Ġ4238":4968,"Ġ4335":4969,"Ġ4187":4970,"Ġ4334":4971,"opengu":4972,"ĠBoun":4973,"Ġ600":4974,"Ġ634":4975,"Ġ662":4976,"Ġ6190":4977,"ĠKere":4978,"ati":4979,"3082":4980,"Ġ518":4981,"Ġ519":4982,"Ġ520":4983,"Ġ525":4984,"Ġ568":4985,"Ġ565":4986,"Ġ549":4987,"Ġ567":4988,"Ġ580":4989,"Ġ588":4990,"Ġ552":4991,"Ġ5260":4992,"ĠEtab":4993,"ĠDun":4994,"Rues":4995,"ĠOit":4996,"anda":4997,"ĠExcell":4998,"itre":4999,"itas":5000,"Ġ9654":5001,"Ġ9587":5002,"ĠJu":5003,"ĠJalla":5004,"Ġ081":5005,"Ġ002":5006,"Ġ007":5007,"rovia":5008,"Ġ10224":5009,"Ġ700":5010,"Ġ759":5011,"Ġ7278":5012,"Ġ7471":5013,"Ġ7657":5014,"Ġ7396":5015,"Ġ8606":5016,"Ġ8674":5017,"ĠDescemet":5018,"ĠAmilcar":5019,"ĠAssist":5020,"pport":5021,"ĠThiaw":5022,"ĠBourg":5023,"ĠLeybar":5024,"ĠNdour":5025,"obile":5026,"9976":5027,"ĠUniite":5028,"ĠIndpendance":5029,"ĠPetavin":5030,"ĠMbod":5031,"ĠRebeuss":5032,"ĠRelais":5033,"ĠPresidence":5034,"Ġ209":5035,"Ġ2015":5036,"Ġ2082":5037,"ĠCarval":5038,"omar":5039,"ĠDioubo":5040,"iponty":5041,"ĠParsine":5042,"4320":5043,"ĠSeye":5044,"ĠSalle":5045,"ĠSaliou":5046,"ĠYe":5047,"ĠYana":5048,"rairie":5049,"Scatt":5050,"ĠCamara":5051,"ĠCamille":5052,"ĠWolle":5053,"Ġ301":5054,"Ġ306":5055,"Ġ307":5056,"Ġ309":5057,"Ġ3079":5058,"Ġ193":5059,"hamiyou":5060,"ĠEconom":5061,"Ġ408":5062,"Ġ4030":5063,"ĠFerraille":5064,"9434":5065,"khane":5066,"ĠMerina":5067,"ĠArme":5068,"raco":5069,"ĠNgou":5070,"unaute":5071,"ĠPav":5072,"ĠKarak":5073,"ĠParking":5074,"Ġ5053":5075,"oumane":5076,"ĠMeche":5077,"ĠChirurgie":5078,"ĠChouca":5079,"aila":5080,"ĠBirame":5081,"dienne":5082,"veau":5083,"vembre":5084,"ĠPhare":5085,"ĠGouver":5086,"ĠBlu":5087,"ĠCascal":5088,"ĠDrame":5089,"ĠGroupe":5090,"ĠRouhou":5091,"ĠLibrairie":5092,"oulou":5093,"ĠGui":5094,"ĠServices":5095,"eremy":5096,"ĠDroit":5097,"ĠDoudou":5098,"ĠDougar":5099,"ĠNovembre":5100,"ĠMatfor":5101,"ĠBern":5102,"ĠAimee":5103,"ĠKhadija":5104,"Ancien":5105,"ĠHachamiyou":5106,"ĠEnfacedu":5107,"ĠDod":5108,"Ġ10500":5109,"ĠScore":5110,"ĠArts":5111,"ĠFerrovia":5112,"ĠVerdienne":5113,"ĠDegaule":5114,"ĠDiarra":5115,"ĠTechnique":5116,"ĠNdiakhirate":5117,"ĠSapeurs":5118,"ĠNeant":5119,"ĠCabral":5120,"ĠCabrousse":5121,"ĠMousty":5122,"ĠThioce":5123,"ĠTelecoms":5124,"Regus":5125,"ĠSips":5126,"ĠKaty":5127,"ĠSidaty":5128,"ĠBambara":5129,"ĠBassari":5130,"Campus":5131,"Ġ13500":5132,"ĠAtlantic":5133,"ĠNabou":5134,"ĠMachallah":5135,"ĠPedago":5136,"ĠBaraque":5137,"ĠMorris":5138,"ĠFacade":5139,"Guinaw":5140,"ĠSones":5141,"ĠResident":5142,"ĠCtic":5143,"ĠIpg":5144,"olofene":5145,"ĠGoeland":5146,"ĠDardane":5147,"ĠCharles":5148,"akouta":5149,"ĠNafa":5150,"ĠFamiliale":5151,"ĠExpert":5152,"ĠAmazout":5153,"ĠPromocap":5154,"ĠFemm":5155,"ĠGondole":5156,"ĠNdiareme":5157,"ĠBataillon":5158,"Bambilor":5159,"Numero":5160,"Service":5161,"Terminus":5162,"ĠEquip":5163,"ĠMaun":5164,"ĠMusulman":5165,"ĠBordure":5166,"ĠHalima":5167,"ĠAssainie":5168,"ĠHypermarche":5169,"ĠFerdinand":5170,"ĠImmobiliere":5171,"Notto":5172,"ĠFinance":5173,"ĠView":5174,"ĠGentina":5175,"ĠSofraco":5176,"ĠSocio":5177,"ĠToubakouta":5178,"ĠIntendance":5179,"ĠMarthin":5180,"ĠPediatrie":5181,"ĠTransition":5182,"ĠSuperieure":5183,"ĠMissirah":5184,"ĠPrefecture":5185,"Etablissement":5186,"Sangalkam":5187,"Santhiaba":5188,"Triangle":5189,"corde":5190,"jxg":5191,"ĠSuarl":5192,"ĠSainte":5193,"ĠNouvel":5194,"ĠMtoa":5195,"ĠComplementaire":5196,"openguine":5197,"ĠKerekou":5198,"ĠEtablissement":5199,"ĠExcellence":5200,"ĠJallabert":5201,"ĠCarvalho":5202,"ĠChoucair":5203,"ĠGouvernance":5204,"ĠCascales":5205,"ĠMatforce":5206,"ĠFerroviaire":5207,"347":5208,"360":5209,"432":5210,"4238":5211,"4335":5212,"4684":5213,"534":5214,"600":5215,"7278":5216,"7471":5217,"7606":5218,"9476":5219,"Agora":5220,"Bo":5221,"Baye":5222,"Baobab":5223,"Cl":5224,"Cas":5225,"De":5226,"Deux":5227,"Gorom":5228,"Hamd":5229,"Ja":5230,"Kh":5231,"Miss":5232,"Nian":5233,"Ou":5234,"Oie":5235,"Pal":5236,"Pont":5237,"Rn":5238,"Sn":5239,"Su":5240,"Sis":5241,"Sor":5242,"Sand":5243,"Sige":5244,"Tound":5245,"Ufr":5246,"Vo":5247,"cin":5248,"cation":5249,"cus":5250,"dp":5251,"dio":5252,"eel":5253,"gard":5254,"gain":5255,"hlm":5256,"iam":5257,"iane":5258,"jari":5259,"ko":5260,"khe":5261,"kia":5262,"liberte":5263,"mn":5264,"man":5265,"nam":5266,"nel":5267,"oe":5268,"oce":5269,"pin":5270,"pher":5271,"plex":5272,"rp":5273,"rou":5274,"rier":5275,"rique":5276,"spe":5277,"tp":5278,"tou":5279,"uz":5280,"vard":5281,"vation":5282,"we":5283,"war":5284,"yal":5285,"yland":5286,"ĠDent":5287,"ĠDic":5288,"ĠDerr":5289,"ĠDsm":5290,"enc":5291,"ĠSi":5292,"ĠSak":5293,"ĠSite":5294,"ĠSib":5295,"ĠSig":5296,"ĠSus":5297,"ĠSang":5298,"ĠSif":5299,"ĠSakh":5300,"ĠSamb":5301,"ĠSport":5302,"ĠSitue":5303,"akhar":5304,"enelles":5305,"uette":5306,"telle":5307,"terie":5308,"ĠNc":5309,"ĠNt":5310,"ĠNeu":5311,"ĠNat":5312,"ĠNgu":5313,"ĠAw":5314,"ĠAres":5315,"ĠApe":5316,"ĠAiss":5317,"ĠAct":5318,"ĠAya":5319,"ouane":5320,"ouna":5321,"outh":5322,"ĠRu":5323,"ĠRidien":5324,"ĠRoche":5325,"ĠRfm":5326,"ĠRyland":5327,"ĠCle":5328,"ĠCss":5329,"ĠCge":5330,"ĠCorn":5331,"ĠCiss":5332,"ĠCaur":5333,"ĠCnar":5334,"ery":5335,"ĠLu":5336,"ĠLion":5337,"ĠLed":5338,"ĠLul":5339,"ĠLitt":5340,"ĠEv":5341,"ĠMi":5342,"ĠMu":5343,"ĠMain":5344,"ĠMasse":5345,"ĠMamou":5346,"ĠPu":5347,"ĠPent":5348,"ĠPerm":5349,"ĠPlles":5350,"ĠPopenguine":5351,"antec":5352,"ĠFari":5353,"ĠFlam":5354,"Ġ1260":5355,"Ġ1109":5356,"Ġ1688":5357,"Ġ1992":5358,"laire":5359,"lahi":5360,"ĠBd":5361,"ĠBak":5362,"ĠBam":5363,"ĠBand":5364,"ĠBra":5365,"ĠBvd":5366,"ĠBakou":5367,"eum":5368,"ĠRuetolbiac":5369,"Ġ229":5370,"Ġ244":5371,"Ġ258":5372,"Ġ294":5373,"Ġ274":5374,"Ġ2678":5375,"Ġ2805":5376,"Ġ2987":5377,"ora":5378,"enten":5379,"ĠIt":5380,"ĠIam":5381,"ĠImo":5382,"ĠIrd":5383,"ĠXa":5384,"Ġ316":5385,"Ġ340":5386,"Ġ339":5387,"Ġ385":5388,"Ġ375":5389,"Ġ344":5390,"Ġ398":5391,"Ġ342":5392,"Ġ394":5393,"Ġ383":5394,"Ġ371":5395,"Ġ384":5396,"Ġ372":5397,"Ġ3008":5398,"sel":5399,"ĠTal":5400,"ĠTann":5401,"ĠTab":5402,"ĠTote":5403,"ĠTalla":5404,"ibaly":5405,"ĠFaind":5406,"apse":5407,"ĠDione":5408,"ĠDivin":5409,"ĠDiaba":5410,"ache":5411,"1036":5412,"ĠHang":5413,"ĠHarm":5414,"adies":5415,"Ġ412":5416,"Ġ415":5417,"Ġ418":5418,"Ġ416":5419,"Ġ417":5420,"Ġ430":5421,"Ġ420":5422,"Ġ427":5423,"Ġ428":5424,"Ġ465":5425,"Ġ435":5426,"Ġ470":5427,"Ġ421":5428,"Ġ432":5429,"Ġ431":5430,"Ġ490":5431,"Ġ458":5432,"Ġ457":5433,"Ġ451":5434,"Ġ486":5435,"Ġ496":5436,"Ġ481":5437,"Ġ4121":5438,"Ġ4331":5439,"ĠBoub":5440,"ĠBoulev":5441,"ĠBoubou":5442,"ĠBougain":5443,"Ġ610":5444,"Ġ628":5445,"Ġ640":5446,"Ġ644":5447,"Ġ680":5448,"Ġ676":5449,"Ġ651":5450,"Ġ683":5451,"Ġ682":5452,"ĠKal":5453,"ĠKher":5454,"ĠKoun":5455,"atier":5456,"3025":5457,"Ġ529":5458,"Ġ523":5459,"Ġ555":5460,"Ġ539":5461,"Ġ550":5462,"Ġ558":5463,"Ġ592":5464,"Ġ581":5465,"Ġ5000":5466,"Ġ5492":5467,"ffane":5468,"2778":5469,"ĠEtat":5470,"inth":5471,"2566":5472,"2564":5473,"ston":5474,"idda":5475,"ĠDuplex":5476,"baye":5477,"3399":5478,"ĠOne":5479,"ĠPlazza":5480,"ĠMarco":5481,"ĠMarket":5482,"ĠPoisson":5483,"ĠFoir":5484,"ĠForet":5485,"ĠFobr":5486,"elina":5487,"itanie":5488,"Ġ918":5489,"Ġ942":5490,"Ġ9185":5491,"Ġ9574":5492,"neaire":5493,"ĠGuele":5494,"ĠJcl":5495,"ĠJamil":5496,"ĠJay":5497,"ĠJeremy":5498,"Ġ045":5499,"Ġ063":5500,"Ġ0153":5501,"Ġ001":5502,"Ġ004":5503,"Ġ006":5504,"roc":5505,"rol":5506,"ros":5507,"Ġ1031":5508,"Ġ713":5509,"Ġ779":5510,"Ġ731":5511,"Ġ763":5512,"Ġ784":5513,"Ġ7135":5514,"Ġ7558":5515,"Ġ838":5516,"Ġ835":5517,"Ġ808":5518,"Ġ8117":5519,"Ġ8785":5520,"Ġ8086":5521,"guiss":5522,"ĠAminat":5523,"ĠSacree":5524,"ĠThie":5525,"ĠThze":5526,"ĠZig":5527,"olo":5528,"ĠEmet":5529,"oury":5530,"4028":5531,"ences":5532,"ĠHannbe":5533,"ĠMedico":5534,"ĠLefe":5535,"ĠNdou":5536,"3444":5537,"obene":5538,"assou":5539,"imane":5540,"imouna":5541,"ĠMaland":5542,"ocim":5543,"ĠMbane":5544,"ĠDjoloff":5545,"ĠSab":5546,"sseyn":5547,"ĠReg":5548,"Ġ1530":5549,"ĠPresid":5550,"ĠStat":5551,"Ġ2027":5552,"Ġ2068":5553,"bezy":5554,"ĠLouveau":5555,"omobile":5556,"gheul":5557,"Ġ1213":5558,"ution":5559,"ĠModou":5560,"ĠMoham":5561,"ĠSenpa":5562,"ĠAlignement":5563,"ĠSalon":5564,"ĠAbien":5565,"ĠYav":5566,"ĠYelina":5567,"rab":5568,"ĠEli":5569,"ĠElan":5570,"ĠEllipse":5571,"ĠElimane":5572,"ĠCay":5573,"ĠCaill":5574,"ĠTout":5575,"ĠKhary":5576,"ĠWal":5577,"ĠWass":5578,"ĠProche":5579,"Ġ3082":5580,"ĠScatt":5581,"Ġ1910":5582,"ĠEcologie":5583,"Ġ405":5584,"Ġ4017":5585,"Ġ4047":5586,"ĠEsp":5587,"erkl":5588,"onaise":5589,"ios":5590,"Ġ2948":5591,"8619":5592,"8635":5593,"ĠNgs":5594,"istique":5595,"Enface":5596,"Keury":5597,"ĠLog":5598,"ĠLodj":5599,"3003":5600,"Diourbel":5601,"pecsi":5602,"Ġ501":5603,"Ġ502":5604,"Ġ504":5605,"ĠMah":5606,"ĠMahe":5607,"ĠMaimouna":5608,"niado":5609,"ĠDialo":5610,"ĠIsma":5611,"ĠIsoce":5612,"ĠNiakhar":5613,"ĠDkar":5614,"isso":5615,"10561":5616,"ĠSandial":5617,"dian":5618,"14563":5619,"Medecine":5620,"bassade":5621,"ĠRome":5622,"ĠRoos":5623,"ĠRoser":5624,"ĠRoyal":5625,"ĠTex":5626,"Ġ606":5627,"Ġ701":5628,"ĠMaguette":5629,"ĠCaddy":5630,"ĠHyund":5631,"Ġ1001":5632,"Ġ5626":5633,"Ġ5868":5634,"Amit":5635,"okho":5636,"Ġ8631":5637,"ĠEspaces":5638,"ĠDaba":5639,"ĠDabo":5640,"ĠDaya":5641,"ĠBase":5642,"ĠBaba":5643,"Ġ7539":5644,"ĠMarchant":5645,"ĠSupport":5646,"ĠLebougui":5647,"ĠEmer":5648,"Case":5649,"Ġ901":5650,"Ġ902":5651,"Ġ8414":5652,"Ġ8469":5653,"Ġ9748":5654,"ĠJojo":5655,"ĠSouvenir":5656,"ĠBerger":5657,"ĠLybia":5658,"ĠPrive":5659,"ĠConcorde":5660,"ĠBoulga":5661,"ĠBoumak":5662,"Ġ7668":5663,"Ġ8985":5664,"Ġ9447":5665,"Ġ9436":5666,"Ġ9432":5667,"Ġ9833":5668,"ĠTerrou":5669,"Ġ9569":5670,"Ġ10564":5671,"ĠFrobenus":5672,"ĠFery":5673,"ĠVeritas":5674,"ĠAtti":5675,"ĠOua":5676,"ĠOusseyn":5677,"ĠIbrahim":5678,"ĠMauritanie":5679,"ĠMiname":5680,"Ġ10619":5681,"Ġ10800":5682,"ĠGood":5683,"ĠGoorgui":5684,"ĠNdiolofene":5685,"ĠNdiobene":5686,"ĠSapeur":5687,"ĠNeh":5688,"ĠPhilip":5689,"ĠHabitex":5690,"gues":5691,"Petite":5692,"ĠOng":5693,"ĠDarling":5694,"ĠForum":5695,"ĠThiokh":5696,"ĠHorizons":5697,"ĠSebikhotane":5698,"ĠSebiponty":5699,"Ġ21000":5700,"ĠDenand":5701,"ĠCaillet":5702,"Inter":5703,"ongre":5704,"ĠNgallele":5705,"ĠFilao":5706,"ĠSodiba":5707,"ĠBiscuterie":5708,"ĠSecteur":5709,"Communaute":5710,"ĠDeuxieme":5711,"ĠTranche":5712,"ĠMonteiro":5713,"ĠChamp":5714,"ĠLazars":5715,"ĠSousoum":5716,"ĠPrestige":5717,"ĠBalneaire":5718,"ĠBulding":5719,"ĠJaponaise":5720,"ĠNdeffane":5721,"ĠExclusif":5722,"Ġ24539":5723,"Chateau":5724,"ĠQuatre":5725,"ĠVillan":5726,"ĠGaston":5727,"ĠHenri":5728,"ĠAbattoire":5729,"beus":5730,"joal":5731,"ĠResid":5732,"Ġ20000":5733,"ĠOffic":5734,"ĠSociete":5735,"ĠTransf":5736,"ĠPyrothechn":5737,"iales":5738,"ĠDardenelles":5739,"ĠXeweel":5740,"ĠFamiliales":5741,"ĠZeina":5742,"ĠSophie":5743,"ĠKoone":5744,"ĠMarguer":5745,"Ġ00000":5746,"ĠFrontieres":5747,"ĠAgric":5748,"ĠCoulibaly":5749,"ĠLagence":5750,"ĠPiece":5751,"ĠBasket":5752,"ĠSyprom":5753,"ĠPyrothecnie":5754,"ĠEssarts":5755,"Terrain":5756,"ĠSelim":5757,"ĠScoa":5758,"ĠAfia":5759,"ĠRhane":5760,"ĠCncas":5761,"ĠCerf":5762,"ĠPullman":5763,"ĠMountakha":5764,"ĠDiouloulou":5765,"ĠProfesseurs":5766,"ĠLyonnais":5767,"Galerie":5768,"ĠAbasse":5769,"ĠEducation":5770,"anatoul":5771,"ĠFidak":5772,"oratoire":5773,"ĠCodens":5774,"ĠCoiffure":5775,"ĠHersent":5776,"ĠJuin":5777,"ĠAssistance":5778,"ĠArmees":5779,"ĠPavillon":5780,"ĠDodds":5781,"ĠDardanelles":5782,"Jaxaay":5783,"Toundoup":5784,"ĠSuska":5785,"ĠSifav":5786,"ĠAresa":5787,"ĠCornich":5788,"ĠCnart":5789,"ĠLionnes":5790,"ĠLedantec":5791,"ĠLulu":5792,"ĠPentola":5793,"ĠTotem":5794,"ĠFaindherbe":5795,"ĠDivinite":5796,"ĠKoungheul":5797,"ĠForets":5798,"ĠAminata":5799,"ĠHannbelair":5800,"ĠLefevre":5801,"ĠSenpaic":5802,"ĠAbiena":5803,"ĠYavuz":5804,"ĠIsocele":5805,"ĠRoosvelt":5806,"ĠHyundai":5807,"ĠAttijari":5808,"367":5809,"369":5810,"414":5811,"418":5812,"4337":5813,"4334":5814,"4459":5815,"4608":5816,"4402":5817,"4346":5818,"565":5819,"538":5820,"569":5821,"532":5822,"633":5823,"6181":5824,"715":5825,"778":5826,"732":5827,"879":5828,"834":5829,"8651":5830,"8454":5831,"8782":5832,"910":5833,"964":5834,"9260":5835,"9163":5836,"9709":5837,"Al":5838,"Ainoum":5839,"Apecsi":5840,"Bc":5841,"Bay":5842,"Cf":5843,"Cp":5844,"Cham":5845,"Cote":5846,"Cantine":5847,"Dak":5848,"Deni":5849,"Dkr":5850,"El":5851,"Eme":5852,"Emb":5853,"Gouye":5854,"Ind":5855,"Imble":5856,"Jardin":5857,"Kasnack":5858,"Mo":5859,"Mer":5860,"Maka":5861,"Ngue":5862,"Or":5863,"Pole":5864,"Phar":5865,"Passage":5866,"Rade":5867,"Risso":5868,"Sed":5869,"Soc":5870,"Soumbedioune":5871,"Ta":5872,"Te":5873,"Tambacounda":5874,"Vill":5875,"Ville":5876,"Xjxg":5877,"Yene":5878,"Zfi":5879,"aic":5880,"ater":5881,"bure":5882,"bus":5883,"bacar":5884,"boratoire":5885,"cam":5886,"cap":5887,"cteur":5888,"dit":5889,"diou":5890,"derne":5891,"em":5892,"ew":5893,"eye":5894,"elle":5895,"eva":5896,"foire":5897,"gb":5898,"gou":5899,"gique":5900,"gation":5901,"graphique":5902,"ha":5903,"han":5904,"hlaboul":5905,"ior":5906,"imm":5907,"iologie":5908,"keu":5909,"kil":5910,"kokh":5911,"ld":5912,"lp":5913,"mu":5914,"meuble":5915,"med":5916,"mence":5917,"nie":5918,"niaye":5919,"oy":5920,"ouest":5921,"oologique":5922,"ovation":5923,"pot":5924,"prim":5925,"ponty":5926,"ron":5927,"ries":5928,"rit":5929,"ras":5930,"risson":5931,"sd":5932,"sainies":5933,"sra":5934,"tres":5935,"up":5936,"vir":5937,"wdou":5938,"waf":5939,"way":5940,"xy":5941,"yo":5942,"Ġ(":5943,"Ġ/":5944,"Ġc":5945,"Ġjoal":5946,"ĠDl":5947,"ĠDak":5948,"ĠDom":5949,"ĠDistr":5950,"ĠDoro":5951,"ĠDistrict":5952,"aris":5953,"enion":5954,"enghor":5955,"enant":5956,"ĠSour":5957,"ĠSiv":5958,"ĠSham":5959,"ĠSaph":5960,"ĠSenten":5961,"ales":5962,"ako":5963,"galcam":5964,"tepa":5965,"ĠNy":5966,"ĠNar":5967,"ĠNive":5968,"ĠNiarry":5969,"ĠAer":5970,"ĠAlles":5971,"ĠAur":5972,"ĠAlmad":5973,"ĠAim":5974,"ĠAida":5975,"ĠAab":5976,"ĠAjjar":5977,"ĠAvenu":5978,"ĠAtepa":5979,"ourossogui":5980,"ĠRus":5981,"ĠCin":5982,"ĠCall":5983,"ĠCord":5984,"ĠCorm":5985,"ĠCms":5986,"erche":5987,"ĠLis":5988,"ĠLon":5989,"ĠLop":5990,"ĠLuf":5991,"ĠLia":5992,"ĠLgi":5993,"ĠLigne":5994,"ĠLieu":5995,"ĠLgm":5996,"ĠElles":5997,"ĠMak":5998,"ĠMic":5999,"ĠMur":6000,"ĠMiro":6001,"ĠMobil":6002,"ĠMines":6003,"ĠMomar":6004,"legation":6005,"ĠPour":6006,"ĠPendance":6007,"ĠPna":6008,"ĠPital":6009,"ĠFx":6010,"ĠFour":6011,"ĠFmp":6012,"ĠFeto":6013,"ĠFlex":6014,"inies":6015,"Ġ1100":6016,"Ġ1175":6017,"Ġ1187":6018,"Ġ1181":6019,"Ġ1364":6020,"Ġ1976":6021,"Ġ1446":6022,"Ġ1356":6023,"Ġ1983":6024,"law":6025,"ree":6026,"resso":6027,"ĠBau":6028,"ĠBad":6029,"ĠBik":6030,"ĠBob":6031,"ĠBao":6032,"ĠBerr":6033,"ĠBoc":6034,"ĠBaud":6035,"ish":6036,"isen":6037,"ĠVir":6038,"ĠVente":6039,"eukeu":6040,"ilo":6041,"ilal":6042,"ileni":6043,"Ġ247":6044,"Ġ238":6045,"Ġ285":6046,"Ġ289":6047,"Ġ288":6048,"Ġ295":6049,"Ġ261":6050,"Ġ281":6051,"Ġ2289":6052,"Ġ2224":6053,"Ġ2201":6054,"Ġ2404":6055,"Ġ2686":6056,"Ġ2393":6057,"Ġ2777":6058,"Ġ2954":6059,"onel":6060,"orp":6061,"ory":6062,"orong":6063,"cept":6064,"ĠGt":6065,"ĠGol":6066,"amp":6067,"amat":6068,"amadou":6069,"ĠIl":6070,"ĠXd":6071,"Ġ318":6072,"Ġ319":6073,"Ġ317":6074,"Ġ323":6075,"Ġ365":6076,"Ġ360":6077,"Ġ334":6078,"Ġ370":6079,"Ġ389":6080,"Ġ353":6081,"Ġ396":6082,"Ġ3370":6083,"ici":6084,"ican":6085,"icca":6086,"sed":6087,"ĠTro":6088,"ĠTiv":6089,"ĠTio":6090,"ĠTun":6091,"ĠTaly":6092,"ĠToro":6093,"agna":6094,"ĠCop":6095,"ĠCosepi":6096,"ibution":6097,"apio":6098,"ĠDiat":6099,"ĠDiass":6100,"ĠDiong":6101,"ĠDiery":6102,"acoul":6103,"anning":6104,"1050":6105,"1031":6106,"10227":6107,"10134":6108,"10554":6109,"10503":6110,"ĠHan":6111,"ĠHon":6112,"ĠHib":6113,"ĠHall":6114,"ĠHdp":6115,"ĠHilal":6116,"1222":6117,"1589":6118,"adie":6119,"1327":6120,"1308":6121,"1410":6122,"1431":6123,"Ġ424":6124,"Ġ425":6125,"Ġ426":6126,"Ġ433":6127,"Ġ423":6128,"Ġ468":6129,"Ġ438":6130,"Ġ460":6131,"Ġ434":6132,"Ġ436":6133,"Ġ499":6134,"Ġ450":6135,"Ġ480":6136,"Ġ489":6137,"Ġ446":6138,"Ġ497":6139,"Ġ443":6140,"Ġ441":6141,"Ġ456":6142,"Ġ452":6143,"Ġ484":6144,"Ġ4150":6145,"Ġ472":6146,"Ġ492":6147,"Ġ4684":6148,"opa":6149,"oprt":6150,"ĠBouguiba":6151,"ĠBoudo":6152,"ĠBouki":6153,"1820":6154,"Ġ612":6155,"Ġ615":6156,"Ġ624":6157,"Ġ633":6158,"Ġ655":6159,"Ġ611":6160,"Ġ645":6161,"Ġ678":6162,"Ġ675":6163,"Ġ666":6164,"Ġ650":6165,"Ġ689":6166,"Ġ659":6167,"Ġ671":6168,"Ġ686":6169,"Ġ693":6170,"Ġ6086":6171,"ĠKor":6172,"ĠKine":6173,"ĠKhe":6174,"ĠKang":6175,"ĠKorom":6176,"ĠKapio":6177,"atar":6178,"atologie":6179,"eurie":6180,"eurigne":6181,"3000":6182,"3079":6183,"3077":6184,"Ġ510":6185,"Ġ514":6186,"Ġ533":6187,"Ġ547":6188,"Ġ537":6189,"Ġ534":6190,"Ġ521":6191,"Ġ536":6192,"Ġ544":6193,"Ġ559":6194,"Ġ598":6195,"Ġ543":6196,"Ġ542":6197,"Ġ508":6198,"Ġ576":6199,"Ġ583":6200,"Ġ5100":6201,"Ġ582":6202,"Ġ5328":6203,"Ġ5178":6204,"Ġ5486":6205,"Ġ5271":6206,"Ġ5475":6207,"Ġ5487":6208,"Ġ5489":6209,"Ġ5772":6210,"Ġ5502":6211,"ffa":6212,"2071":6213,"ĠRoutes":6214,"2700":6215,"ĠEtrier":6216,"ĠEticca":6217,"2568":6218,"2593":6219,"str":6220,"stle":6221,"stan":6222,"idat":6223,"2839":6224,"2646":6225,"ĠLaboratoire":6226,"bas":6227,"ĠOc":6228,"ĠOre":6229,"ĠOum":6230,"2395":6231,"2396":6232,"ĠMarig":6233,"ĠMarist":6234,"ĠMaraic":6235,"esar":6236,"esse":6237,"ĠPodor":6238,"ĠFocus":6239,"ĠEtages":6240,"elisque":6241,"elique":6242,"melles":6243,"its":6244,"itu":6245,"Ġ910":6246,"Ġ916":6247,"Ġ954":6248,"Ġ973":6249,"Ġ9159":6250,"nement":6251,"ĠEns":6252,"ĠEnda":6253,"ĠGuedj":6254,"isterie":6255,"ĠJam":6256,"ĠJav":6257,"Ġ032":6258,"Ġ086":6259,"Ġ052":6260,"rome":6261,"room":6262,"Ġ1012":6263,"Ġ1016":6264,"Ġ1019":6265,"Ġ1022":6266,"Ġ1097":6267,"Ġ10227":6268,"Ġ10156":6269,"Ġ10750":6270,"Ġ10753":6271,"Ġ10774":6272,"ikaye":6273,"Ġ760":6274,"Ġ734":6275,"Ġ721":6276,"Ġ777":6277,"Ġ764":6278,"Ġ7283":6279,"Ġ7474":6280,"Ġ7601":6281,"Ġ7694":6282,"irak":6283,"irene":6284,"ĠExtens":6285,"ĠExtenion":6286,"Ġ800":6287,"Ġ821":6288,"Ġ859":6289,"Ġ891":6290,"Ġ8683":6291,"Ġ8496":6292,"Ġ8759":6293,"Ġ8597":6294,"Ġ8901":6295,"guiers":6296,"ĠAmirak":6297,"ĠAssan":6298,"ĠAssure":6299,"cha":6300,"chite":6301,"cheurs":6302,"cherche":6303,"Avenueenue":6304,"ĠMbaba":6305,"ĠThia":6306,"ĠThonghor":6307,"ĠThongor":6308,"ĠZI":6309,"ĠZam":6310,"ĠZagal":6311,"ĠZoologique":6312,"oly":6313,"olier":6314,"4023":6315,"4085":6316,"4074":6317,"4810":6318,"ĠAndr":6319,"4951":6320,"4578":6321,"taine":6322,"taya":6323,"ĠHanne":6324,"ĠAssainiesu":6325,"Sacree":6326,"ĠLembarcadere":6327,"ĠNdar":6328,"ĠNdoff":6329,"ĠNdame":6330,"ĠNdio":6331,"nda":6332,"tiers":6333,"8510":6334,"8527":6335,"ationale":6336,"7538":6337,"7539":6338,"7541":6339,"3625":6340,"gement":6341,"9934":6342,"9999":6343,"ĠLamp":6344,"ĠLambert":6345,"ĠLambaye":6346,"4465":6347,"ĠMaladies":6348,"ĠChef":6349,"ĠPyrotec":6350,"technique":6351,"ĠUnis":6352,"ĠPyrotechni":6353,"ĠPepin":6354,"4635":6355,"ĠMbene":6356,"ĠMbalo":6357,"ĠDjou":6358,"ĠDjida":6359,"ĠDjambars":6360,"ĠDjolof":6361,"ĠSyn":6362,"ĠSaba":6363,"8865":6364,"ĠRex":6365,"Ġ1588":6366,"Ġ1541":6367,"ĠErnam":6368,"ĠXeew":6369,"ĠStar":6370,"ĠStore":6371,"6420":6372,"Ġ2010":6373,"Ġ2018":6374,"Ġ2016":6375,"Ġ2020":6376,"Ġ2025":6377,"Ġ2037":6378,"Ġ2059":6379,"Ġ2031":6380,"ĠCarter":6381,"ĠMouse":6382,"Ġ1113":6383,"Ġ1421":6384,"Ġ1349":6385,"bey":6386,"ciens":6387,"Ġ12300":6388,"ĠModerne":6389,"ĠDiourome":6390,"9826":6391,"iara":6392,"riel":6393,"douin":6394,"4313":6395,"4319":6396,"ĠSein":6397,"ĠSeign":6398,"ĠSeffa":6399,"ĠSenac":6400,"ĠSengh":6401,"Ġ18155":6402,"hers":6403,"9546":6404,"ĠSaldia":6405,"ĠSaloum":6406,"ĠAbacar":6407,"ĠAbrit":6408,"8769":6409,"ĠYa":6410,"ĠYone":6411,"ĠYenne":6412,"Ġ1622":6413,"ĠCamb":6414,"ĠCaesar":6415,"ĠTouta":6416,"ĠTouts":6417,"ĠToucou":6418,"ĠPeycou":6419,"ĠAutomobile":6420,"ĠLeoplo":6421,"ango":6422,"angelique":6423,"ĠWater":6424,"ĠProvisoire":6425,"antin":6426,"Ġ304":6427,"Ġ308":6428,"Ġ3022":6429,"Ġ3075":6430,"Ġ3036":6431,"Ġ3050":6432,"Ġ3077":6433,"Ġ3097":6434,"Ġ3095":6435,"Ġ194":6436,"idoux":6437,"Ġ406":6438,"Ġ4024":6439,"Ġ4020":6440,"Ġ4065":6441,"Ġ4081":6442,"ĠDiamnadio":6443,"ĠDiamniado":6444,"9412":6445,"9435":6446,"ĠCapit":6447,"ĠCapri":6448,"ĠRpublique":6449,"khokh":6450,"khoura":6451,"Ġ252":6452,"ĠArsm":6453,"Ġ2612":6454,"Ġ2619":6455,"ifa":6456,"8310":6457,"8313":6458,"Ġ24138":6459,"Ġ24293":6460,"1001":6461,"10052":6462,"8612":6463,"8615":6464,"9365":6465,"ĠNgone":6466,"8449":6467,"Ġ23190":6468,"Ġ23231":6469,"ĠImport":6470,"Ġ2114":6471,"Enceinte":6472,"ĠLod":6473,"ĠLogement":6474,"1707":6475,"3007":6476,"aines":6477,"ĠAdj":6478,"Ġ2760":6479,"Diack":6480,"Ġ506":6481,"Ġ507":6482,"Ġ5022":6483,"ĠSans":6484,"ĠSanta":6485,"1105":6486,"ĠMai":6487,"ĠMater":6488,"ĠMaeva":6489,"ĠMem":6490,"ĠMeme":6491,"ĠMetal":6492,"ĠMekhe":6493,"ĠVila":6494,"ĠSare":6495,"2124":6496,"3134":6497,"Ġ2816":6498,"Ġ2839":6499,"ĠWague":6500,"ĠChateau":6501,"2188":6502,"2304":6503,"2151":6504,"hmane":6505,"ĠNianning":6506,"ĠBiram":6507,"10628":6508,"10637":6509,"ĠPascal":6510,"ĠDaroul":6511,"issac":6512,"goce":6513,"ĠSandiara":6514,"diene":6515,"17961":6516,"ĠGouy":6517,"Medine":6518,"ĠRoss":6519,"ĠRosso":6520,"ĠRoxy":6521,"attan":6522,"ĠTefess":6523,"Ġ601":6524,"Ġ602":6525,"Ġ604":6526,"Ġ703":6527,"ĠMagic":6528,"ĠBij":6529,"istration":6530,"etti":6531,"ogie":6532,"Sod":6533,"ĠBarbar":6534,"ĠKelle":6535,"ĠKeita":6536,"Thi":6537,"Thiaw":6538,"Ġ4435":6539,"Ġ4436":6540,"Ġ4432":6541,"ĠCardio":6542,"ĠFahn":6543,"Ġ10077":6544,"Ġ10051":6545,"Ġ10053":6546,"ĠGran":6547,"ĠRoux":6548,"ĠLibya":6549,"Ġ5425":6550,"ĠInf":6551,"ĠInsa":6552,"ĠRdv":6553,"ĠAviations":6554,"Ġ6531":6555,"ĠFranco":6556,"ĠSams":6557,"Ġ5531":6558,"ignon":6559,"Ġ18520":6560,"Ġ7533":6561,"Ġ7538":6562,"Ġ7544":6563,"Ġ7566":6564,"Ġ7532":6565,"ĠBeach":6566,"ĠMillionaire":6567,"ĠSuc":6568,"ĠOceanographique":6569,"Ġ1101":6570,"ĠEnfant":6571,"case":6572,"Mamelle":6573,"Ġ9044":6574,"ĠMatlaboul":6575,"ĠMathlaboul":6576,"Ġ8018":6577,"ĠSousse":6578,"ĠLyser":6579,"ĠPridoux":6580,"ĠThialy":6581,"ĠThieurigne":6582,"Ġ8512":6583,"Stop":6584,"ĠManguiers":6585,"ĠToundou":6586,"ĠCons":6587,"ĠConcept":6588,"ĠLobath":6589,"ĠLobelisque":6590,"ĠMunicipale":6591,"ĠMunicipaux":6592,"ĠGeographiques":6593,"ĠHacinthe":6594,"ĠHydrocarbure":6595,"ĠKlebert":6596,"ĠDojo":6597,"adior":6598,"Ġ6988":6599,"Ġ10544":6600,"ĠMourtalla":6601,"Ġ7958":6602,"ĠQtier":6603,"ĠQatar":6604,"ĠAelm":6605,"ayane":6606,"ĠVerde":6607,"Daroukhane":6608,"ĠAts":6609,"inoise":6610,"ĠOukam":6611,"ĠOussou":6612,"ĠMinisterie":6613,"ĠCoura":6614,"ĠCourse":6615,"Ġ12024":6616,"Presdu":6617,"awfe":6618,"ĠArtisana":6619,"ĠTrileni":6620,"Ġ9365":6621,"Ġ9369":6622,"ĠPalmiers":6623,"ĠNestle":6624,"ĠAbdallah":6625,"ĠAmbassades":6626,"ĠPhilipe":6627,"ĠPcci":6628,"gueye":6629,"odsen":6630,"ĠClerc":6631,"ĠFontaine":6632,"ĠOmar":6633,"ĠOnu":6634,"ĠKhair":6635,"Malick":6636,"cuiterie":6637,"azar":6638,"Rez":6639,"Sey":6640,"ĠConachape":6641,"ĠGabard":6642,"ĠGabriel":6643,"ĠSiprom":6644,"ĠJambaar":6645,"quile":6646,"ĠAsc":6647,"ĠAsie":6648,"ĠAskia":6649,"Ġ21211":6650,"ĠUrbaine":6651,"ĠChambre":6652,"ĠMadina":6653,"ormat":6654,"ĠGaronne":6655,"ĠBabou":6656,"ĠDiez":6657,"ĠDieye":6658,"ĠDieze":6659,"Ġ21927":6660,"ĠRahma":6661,"ĠRahmati":6662,"ĠSciences":6663,"ĠBallaz":6664,"ĠJustin":6665,"ourahmane":6666,"Arsenal":6667,"Ndangane":6668,"Niaga":6669,"Nioro":6670,"Niague":6671,"ĠCorona":6672,"ĠPnlp":6673,"ĠIpres":6674,"ĠSococim":6675,"ĠFonciere":6676,"ĠAcotedu":6677,"ĠDdd":6678,"ĠAkys":6679,"ĠCoton":6680,"ĠCotoa":6681,"ĠWorof":6682,"ĠPrestations":6683,"Djily":6684,"ĠNafi":6685,"ĠMission":6686,"ĠPtt":6687,"ĠBatteries":6688,"Ġ24045":6689,"Ġ25962":6690,"ĠFawoura":6691,"ĠExpresso":6692,"ĠAmities":6693,"ĠInterieur":6694,"ĠPremiere":6695,"ĠSoprime":6696,"ĠGondolier":6697,"ĠOperation":6698,"ĠMarguery":6699,"ĠNdiayene":6700,"ĠSaveur":6701,"ĠSavana":6702,"ĠAboubacar":6703,"ĠWarar":6704,"ĠXcfn":6705,"ĠDpcs":6706,"ĠDerbezy":6707,"ĠReubeus":6708,"ĠBleu":6709,"ĠBleue":6710,"ĠTraite":6711,"ĠDiakhate":6712,"ĠHarisson":6713,"ĠHarrisson":6714,"ĠSypros":6715,"ĠKayar":6716,"ĠKayra":6717,"ĠPyrothecnique":6718,"ĠEssart":6719,"Biscuiterie":6720,"Mairie":6721,"Mbode":6722,"Ndiawdou":6723,"Showroom":6724,"Tivaoune":6725,"Tivaouane":6726,"villees":6727,"ĠRufique":6728,"ĠEmbacadere":6729,"ĠBilguiss":6730,"ĠGandi":6731,"ĠKandji":6732,"ĠAlyama":6733,"ĠChantier":6734,"ĠChange":6735,"ĠIsmaila":6736,"ĠVerdier":6737,"ĠMultimodal":6738,"ĠMultimodale":6739,"Negoce":6740,"Nimzath":6741,"Samu":6742,"Somone":6743,"fosse":6744,"ĠDvf":6745,"ĠNept":6746,"ĠAtelier":6747,"ĠAiglon":6748,"ĠRenovation":6749,"ĠLarsane":6750,"ĠDelafosse":6751,"ĠFbn":6752,"ĠGnagna":6753,"ĠGaspard":6754,"ĠTostan":6755,"ĠBounkil":6756,"ĠMbodj":6757,"ĠEconomie":6758,"ĠNgoude":6759,"ĠBernard":6760,"ĠExpertise":6761,"ĠFemmes":6762,"ĠMaunoury":6763,"ĠFinances":6764,"Club":6765,"Casino":6766,"Hamdal":6767,"Mission":6768,"Palmar":6769,"Sandaga":6770,"Voie":6771,"pheres":6772,"rousel":6773,"spection":6774,"weit":6775,"ĠDental":6776,"ĠDerri":6777,"ĠSakina":6778,"ĠNeuve":6779,"ĠAissainies":6780,"ĠRochette":6781,"ĠClemence":6782,"ĠCissokho":6783,"ĠEvangelique":6784,"ĠMamoune":6785,"ĠFlamants":6786,"ĠBakel":6787,"ĠBambey":6788,"ĠItss":6789,"ĠImofront":6790,"ĠTalibou":6791,"ĠHangar":6792,"ĠHarmattan":6793,"ĠBoulevar":6794,"ĠBougainvillees":6795,"ĠKalia":6796,"ĠEtats":6797,"iddah":6798,"ĠFobrenus":6799,"rocred":6800,"rologie":6801,"ĠEmetteur":6802,"ĠStatue":6803,"ĠMohammed":6804,"ĠCailler":6805,"ĠMahwa":6806,"ĠRoseraie":6807,"ĠTexaco":6808,"ĠOusseynou":6809,"ĠNehme":6810,"Interieur":6811,"ĠAbattoires":6812,"ĠOfficiers":6813,"ĠMarguerite":6814,"ĠAgricole":6815,"ĠAttijariwaf":6816,"Ainoumady":6817,"Dakr":6818,"Embacadere":6819,"Independance":6820,"Mosquee":6821,"Pharmacie":6822,"Sedhiou":6823,"Techn":6824,"ĠDistribution":6825,"ĠSaphir":6826,"ĠSentenac":6827,"ĠNiveau":6828,"ĠAuroroute":6829,"ĠCormier":6830,"ĠLisle":6831,"ĠLopold":6832,"ĠLiaison":6833,"ĠMicrocred":6834,"ĠMiroir":6835,"ĠFmpo":6836,"ĠBaudouin":6837,"ĠBikila":6838,"ĠBaobas":6839,"ĠBocar":6840,"ĠTrois":6841,"ĠTiokhna":6842,"ĠBoudody":6843,"ĠKanghe":6844,"ĠKoromack":6845,"ĠOumy":6846,"ĠMarigot":6847,"ĠMaraichers":6848,"ĠAssureurs":6849,"ĠZagalo":6850,"ĠPepiniere":6851,"ĠXeewel":6852,"ĠSeigneurie":6853,"ĠAbritant":6854,"ĠToucouleur":6855,"ĠLeoplod":6856,"ĠWaterfront":6857,"ĠBarbarie":6858,"Thiawlene":6859,"ĠConception":6860,"ĠOussouye":6861,"awfekh":6862,"ĠTrilenium":6863,"Ndiawdoune":6864,"ĠBounkiling":6865,"ĠClemenceau":6866,"ĠAttijariwafa":6867,"348":6868,"415":6869,"416":6870,"419":6871,"426":6872,"433":6873,"468":6874,"448":6875,"449":6876,"435":6877,"431":6878,"4240":6879,"4250":6880,"4278":6881,"4157":6882,"4295":6883,"4268":6884,"4258":6885,"4133":6886,"4143":6887,"4303":6888,"4002":6889,"4486":6890,"4231":6891,"4331":6892,"4302":6893,"4687":6894,"4407":6895,"4381":6896,"513":6897,"517":6898,"524":6899,"525":6900,"523":6901,"500":6902,"539":6903,"545":6904,"585":6905,"546":6906,"5124":6907,"5000":6908,"5206":6909,"5284":6910,"5492":6911,"5496":6912,"5271":6913,"5488":6914,"5656":6915,"5497":6916,"5772":6917,"5451":6918,"5695":6919,"5483":6920,"614":6921,"630":6922,"725":6923,"740":6924,"738":6925,"745":6926,"744":6927,"766":6928,"7300":6929,"7267":6930,"7264":6931,"7602":6932,"7343":6933,"7484":6934,"7375":6935,"7643":6936,"7784":6937,"810":6938,"824":6939,"825":6940,"867":6941,"8175":6942,"8269":6943,"8245":6944,"8307":6945,"8257":6946,"8154":6947,"8286":6948,"8173":6949,"8283":6950,"8653":6951,"8181":6952,"8650":6953,"8496":6954,"8605":6955,"8609":6956,"8759":6957,"8463":6958,"8789":6959,"8851":6960,"8792":6961,"8798":6962,"912":6963,"924":6964,"925":6965,"911":6966,"935":6967,"944":6968,"977":6969,"963":6970,"961":6971,"9256":6972,"9653":6973,"9471":6974,"9492":6975,"9364":6976,"9408":6977,"9484":6978,"9407":6979,"9272":6980,"9385":6981,"9641":6982,"9893":6983,"9886":6984,"9895":6985,"Ad":6986,"Alles":6987,"All":6988,"Be":6989,"Ben":6990,"Bache":6991,"Bongre":6992,"Bango":6993,"Cer":6994,"Che":6995,"Camb":6996,"Cercle":6997,"Caus":6998,"Drand":6999,"Dia":7000,"Dall":7001,"Daou":7002,"Doug":7003,"Derkl":7004,"Et":7005,"Fm":7006,"Fac":7007,"Fort":7008,"Felix":7009,"Gar":7010,"Goumel":7011,"Geule":7012,"Hy":7013,"Hall":7014,"Icotaf":7015,"Ilot":7016,"Isra":7017,"King":7018,"Kabrousse":7019,"Kirene":7020,"Lou":7021,"Lamine":7022,"Ms":7023,"Mag":7024,"Mba":7025,"Ndou":7026,"Ndi":7027,"Nouvelles":7028,"Nationale":7029,"Olymp":7030,"Pt":7031,"Par":7032,"Pll":7033,"Piscine":7034,"Pav":7035,"Ponty":7036,"Qt":7037,"Rp":7038,"Rs":7039,"Rtes":7040,"Sc":7041,"Sd":7042,"Sen":7043,"Sop":7044,"Saf":7045,"Sica":7046,"Syn":7047,"Sortie":7048,"Situe":7049,"Try":7050,"Vnd":7051,"Vers":7052,"War":7053,"Xc":7054,"Yenne":7055,"Yetti":7056,"ZI":7057,"aer":7058,"aeroport":7059,"bc":7060,"bour":7061,"batt":7062,"boro":7063,"bikotane":7064,"cb":7065,"cr":7066,"cule":7067,"cna":7068,"cault":7069,"czy":7070,"crue":7071,"dc":7072,"den":7073,"dakar":7074,"dies":7075,"del":7076,"dir":7077,"ders":7078,"ein":7079,"eau":7080,"eed":7081,"ema":7082,"ecin":7083,"fp":7084,"fil":7085,"flaye":7086,"forme":7087,"fako":7088,"gas":7089,"gary":7090,"gcap":7091,"hima":7092,"hran":7093,"hazar":7094,"hrologie":7095,"iance":7096,"iom":7097,"iqu":7098,"je":7099,"koul":7100,"kok":7101,"kway":7102,"ls":7103,"ler":7104,"lib":7105,"lique":7106,"lux":7107,"mont":7108,"mang":7109,"mca":7110,"maud":7111,"monde":7112,"mousse":7113,"nkh":7114,"nith":7115,"och":7116,"oya":7117,"oasis":7118,"pd":7119,"po":7120,"pano":7121,"rar":7122,"ril":7123,"rist":7124,"run":7125,"rigne":7126,"rich":7127,"rian":7128,"rague":7129,"rissac":7130,"sf":7131,"si":7132,"sy":7133,"sic":7134,"sap":7135,"sicap":7136,"sole":7137,"sco":7138,"sdih":7139,"saw":7140,"tin":7141,"tire":7142,"ting":7143,"tra":7144,"tile":7145,"ute":7146,"ula":7147,"utechn":7148,"uges":7149,"utes":7150,"ukok":7151,"van":7152,"villa":7153,"vdn":7154,"vas":7155,"vers":7156,"vill":7157,"voa":7158,"weul":7159,"xc":7160,"xf":7161,"xi":7162,"xp":7163,"yar":7164,"ytavin":7165,"ynt":7166,"ymonde":7167,"zi":7168,"zar":7169,"Ġ*":7170,"Ġourossogui":7171,"ĠDc":7172,"ĠDor":7173,"ĠDib":7174,"ĠDas":7175,"ĠDoye":7176,"ĠDoum":7177,"ĠDande":7178,"ĠDyn":7179,"ĠDpt":7180,"ĠDerkl":7181,"arue":7182,"arane":7183,"eniou":7184,"enko":7185,"ĠSh":7186,"ĠSv":7187,"ĠSag":7188,"ĠSac":7189,"ĠSad":7190,"ĠSint":7191,"ĠSes":7192,"ĠSane":7193,"ĠSik":7194,"ĠSch":7195,"ĠSpe":7196,"ĠSident":7197,"ĠSmo":7198,"ĠSatre":7199,"ĠSita":7200,"ĠShow":7201,"ĠSms":7202,"ĠSpheres":7203,"alle":7204,"alam":7205,"aldi":7206,"alait":7207,"akat":7208,"akolda":7209,"akary":7210,"ĠDakarponty":7211,"gala":7212,"galandou":7213,"uer":7214,"ues":7215,"uet":7216,"uelle":7217,"teg":7218,"teforme":7219,"ĠNk":7220,"ĠNp":7221,"ĠNol":7222,"ĠNina":7223,"ĠNge":7224,"ĠNoire":7225,"ĠNaw":7226,"ĠNassou":7227,"ĠAq":7228,"ĠAy":7229,"ĠAle":7230,"ĠAre":7231,"ĠAce":7232,"ĠAme":7233,"ĠApp":7234,"ĠAbe":7235,"ĠAra":7236,"ĠAlmas":7237,"ĠAxe":7238,"ĠAlam":7239,"ĠAgora":7240,"ĠAcase":7241,"oua":7242,"ous":7243,"oure":7244,"ouff":7245,"oucault":7246,"ĠRb":7247,"ĠRon":7248,"ĠRam":7249,"ĠRann":7250,"ĠRst":7251,"ĠRol":7252,"ĠRation":7253,"ĠRust":7254,"ĠRenne":7255,"ĠRock":7256,"ĠRma":7257,"ĠRadi":7258,"ĠRipp":7259,"ĠRri":7260,"ĠRacine":7261,"ĠCr":7262,"ĠCre":7263,"ĠCic":7264,"ĠCba":7265,"ĠCta":7266,"ĠCim":7267,"ĠCant":7268,"ĠCct":7269,"ĠCapec":7270,"ĠCaus":7271,"ĠCanda":7272,"erap":7273,"erade":7274,"ĠLg":7275,"ĠLm":7276,"ĠLot":7277,"ĠLel":7278,"ĠLier":7279,"ĠLub":7280,"ĠLun":7281,"ĠLille":7282,"ĠLaut":7283,"ĠLaur":7284,"ĠLierre":7285,"ĠLong":7286,"ĠLangue":7287,"ĠEh":7288,"ĠEin":7289,"ĠElle":7290,"ĠEne":7291,"ĠEbou":7292,"ĠEaeroport":7293,"ĠEgcap":7294,"ĠMc":7295,"ĠMh":7296,"ĠMr":7297,"ĠMy":7298,"ĠMent":7299,"ĠMot":7300,"ĠMone":7301,"ĠMond":7302,"ĠMama":7303,"ĠMobert":7304,"ĠMady":7305,"ĠPx":7306,"ĠPak":7307,"ĠPon":7308,"ĠPire":7309,"ĠPik":7310,"ĠParce":7311,"ĠPord":7312,"ĠPaye":7313,"ĠPers":7314,"ĠPack":7315,"ĠPere":7316,"ĠPiro":7317,"ĠPoupe":7318,"ĠPouye":7319,"ĠPmu":7320,"anc":7321,"ans":7322,"anence":7323,"ankh":7324,"anson":7325,"anques":7326,"ĠDegu":7327,"ĠDeter":7328,"ĠDeco":7329,"ĠDelegation":7330,"ĠDexp":7331,"ĠFen":7332,"ĠFil":7333,"ĠFord":7334,"ĠFix":7335,"ĠForme":7336,"ĠFout":7337,"ĠFala":7338,"ĠFils":7339,"ĠFsf":7340,"ĠFoucault":7341,"ingu":7342,"inique":7343,"inces":7344,"Ġ1160":7345,"Ġ1159":7346,"Ġ1138":7347,"Ġ1255":7348,"Ġ1235":7349,"Ġ1248":7350,"Ġ1306":7351,"Ġ1276":7352,"Ġ1203":7353,"Ġ1273":7354,"Ġ1172":7355,"Ġ1201":7356,"Ġ1486":7357,"Ġ1470":7358,"Ġ1670":7359,"Ġ1292":7360,"Ġ1472":7361,"Ġ1390":7362,"Ġ1342":7363,"Ġ1642":7364,"Ġ1893":7365,"Ġ1987":7366,"Ġ1887":7367,"lait":7368,"lato":7369,"laser":7370,"reo":7371,"rex":7372,"reuil":7373,"reet":7374,"retelle":7375,"ĠBon":7376,"ĠBine":7377,"ĠBres":7378,"ĠBur":7379,"ĠBol":7380,"ĠBoye":7381,"ĠBond":7382,"ĠBant":7383,"ĠBert":7384,"ĠBaur":7385,"ĠBalaye":7386,"ĠBaila":7387,"ĠBongre":7388,"ĠBitu":7389,"ĠBsic":7390,"ĠBakary":7391,"ĠBretelle":7392,"iser":7393,"ĠVic":7394,"ĠVint":7395,"ĠVital":7396,"ĠVema":7397,"ĠVinces":7398,"eude":7399,"ilen":7400,"ilou":7401,"ildr":7402,"Ġ267":7403,"Ġ299":7404,"Ġ283":7405,"Ġ2120":7406,"Ġ2150":7407,"Ġ272":7408,"Ġ2105":7409,"Ġ2207":7410,"Ġ2174":7411,"Ġ2304":7412,"Ġ2132":7413,"Ġ2122":7414,"Ġ2191":7415,"Ġ2684":7416,"Ġ2683":7417,"Ġ2650":7418,"Ġ2399":7419,"Ġ2364":7420,"Ġ2383":7421,"Ġ2396":7422,"Ġ2370":7423,"Ġ2690":7424,"Ġ2473":7425,"Ġ2783":7426,"Ġ2461":7427,"Ġ2493":7428,"Ġ2443":7429,"Ġ2007":7430,"Ġ2780":7431,"Ġ2790":7432,"Ġ2751":7433,"Ġ2009":7434,"Ġ2894":7435,"Ġ2993":7436,"Ġ23003":7437,"orate":7438,"celle":7439,"celles":7440,"ĠGh":7441,"ĠGle":7442,"ĠGse":7443,"ĠGion":7444,"ĠGard":7445,"ĠGerm":7446,"ĠGir":7447,"ĠGass":7448,"ĠGold":7449,"ĠGere":7450,"ĠGland":7451,"ĠGarm":7452,"ĠGallo":7453,"ĠGaw":7454,"ĠGoll":7455,"ielle":7456,"ieguene":7457,"enth":7458,"entas":7459,"entif":7460,"ĠIr":7461,"ĠIer":7462,"ĠIag":7463,"ĠIbou":7464,"ĠIden":7465,"ĠXce":7466,"ĠXav":7467,"ĠXjxg":7468,"Ġ315":7469,"Ġ348":7470,"Ġ367":7471,"Ġ345":7472,"Ġ336":7473,"Ġ366":7474,"Ġ388":7475,"Ġ364":7476,"Ġ358":7477,"Ġ387":7478,"Ġ341":7479,"Ġ356":7480,"Ġ376":7481,"Ġ351":7482,"Ġ3329":7483,"Ġ3289":7484,"Ġ3249":7485,"Ġ3157":7486,"Ġ3000":7487,"Ġ3256":7488,"Ġ3222":7489,"Ġ3374":7490,"Ġ3001":7491,"Ġ3006":7492,"Ġ3909":7493,"Ġ3902":7494,"iculture":7495,"iciel":7496,"seprim":7497,"sebikotane":7498,"outerie":7499,"oth":7500,"ott":7501,"otion":7502,"ĠTi":7503,"ĠTm":7504,"ĠToute":7505,"ĠTid":7506,"ĠTir":7507,"ĠTass":7508,"ĠTond":7509,"ĠTack":7510,"ĠTiment":7511,"ĠTambac":7512,"ĠTermes":7513,"ĠTyl":7514,"ĠTod":7515,"ĠTiya":7516,"ĠTsm":7517,"ĠTata":7518,"ĠTongor":7519,"ĠTitre":7520,"ĠTawfekh":7521,"agn":7522,"agar":7523,"ager":7524,"ĠCodou":7525,"ĠColaser":7526,"ĠCoseprim":7527,"ibu":7528,"ibril":7529,"ĠFaste":7530,"ĠFacal":7531,"ĠFaalo":7532,"ĠFabr":7533,"ĠDik":7534,"ĠDio":7535,"ĠDiak":7536,"ĠDieu":7537,"ĠDiame":7538,"ĠDiom":7539,"ĠDiang":7540,"ĠDiagu":7541,"ĠDianatoul":7542,"acos":7543,"anne":7544,"1026":7545,"1065":7546,"1097":7547,"1051":7548,"1093":7549,"1096":7550,"10135":7551,"10167":7552,"10228":7553,"10225":7554,"10295":7555,"10224":7556,"10221":7557,"10252":7558,"10556":7559,"10363":7560,"10384":7561,"10584":7562,"ĠHm":7563,"ĠHn":7564,"ĠHir":7565,"ĠHort":7566,"ĠHob":7567,"ĠHaut":7568,"ĠHerne":7569,"ĠHamp":7570,"ĠHcr":7571,"ĠHein":7572,"1230":7573,"1238":7574,"1221":7575,"1232":7576,"1274":7577,"1271":7578,"1291":7579,"1541":7580,"1556":7581,"1576":7582,"15120":7583,"15269":7584,"aude":7585,"adis":7586,"ades":7587,"1315":7588,"1360":7589,"1378":7590,"1331":7591,"1398":7592,"1356":7593,"1373":7594,"1353":7595,"1430":7596,"1400":7597,"1445":7598,"1435":7599,"1456":7600,"1474":7601,"1486":7602,"1472":7603,"14114":7604,"Ġ413":7605,"Ġ422":7606,"Ġ447":7607,"Ġ411":7608,"Ġ449":7609,"Ġ479":7610,"Ġ466":7611,"Ġ464":7612,"Ġ498":7613,"Ġ463":7614,"Ġ462":7615,"Ġ494":7616,"Ġ491":7617,"Ġ4112":7618,"Ġ4325":7619,"Ġ4116":7620,"Ġ4214":7621,"Ġ4320":7622,"Ġ4217":7623,"Ġ4323":7624,"Ġ4178":7625,"Ġ4108":7626,"Ġ4198":7627,"Ġ4295":7628,"Ġ4285":7629,"Ġ4337":7630,"Ġ4296":7631,"Ġ4336":7632,"Ġ4243":7633,"Ġ4459":7634,"Ġ4339":7635,"Ġ4601":7636,"Ġ4608":7637,"Ġ4241":7638,"Ġ4394":7639,"Ġ4407":7640,"Ġ4382":7641,"Ġ4202":7642,"Ġ4375":7643,"Ġ4357":7644,"Ġ4388":7645,"Ġ4807":7646,"opher":7647,"ssion":7648,"ĠBous":7649,"ĠBout":7650,"ĠBoule":7651,"ĠBough":7652,"ĠBougi":7653,"ĠBoudiou":7654,"1868":7655,"1878":7656,"1883":7657,"1893":7658,"1623":7659,"Ġ614":7660,"Ġ616":7661,"Ġ630":7662,"Ġ620":7663,"Ġ625":7664,"Ġ629":7665,"Ġ626":7666,"Ġ647":7667,"Ġ639":7668,"Ġ667":7669,"Ġ637":7670,"Ġ635":7671,"Ġ685":7672,"Ġ679":7673,"Ġ677":7674,"Ġ688":7675,"Ġ658":7676,"Ġ696":7677,"Ġ684":7678,"Ġ692":7679,"Ġ6323":7680,"Ġ6286":7681,"Ġ6302":7682,"Ġ6750":7683,"Ġ6378":7684,"Ġ6597":7685,"Ġ6586":7686,"Ġ6501":7687,"1935":7688,"1979":7689,"1999":7690,"1951":7691,"1983":7692,"1984":7693,"1719":7694,"1717":7695,"17086":7696,"2255":7697,"2264":7698,"2282":7699,"22452":7700,"22788":7701,"ĠKk":7702,"ĠKl":7703,"ĠKp":7704,"ĠKane":7705,"ĠKus":7706,"ĠKamb":7707,"ĠKasse":7708,"ĠKath":7709,"ĠKasnack":7710,"ĠKadior":7711,"3075":7712,"3063":7713,"3094":7714,"3093":7715,"3096":7716,"30170":7717,"3081":7718,"ione":7719,"iono":7720,"ionnel":7721,"lmane":7722,"ĠImmeubles":7723,"Ġ515":7724,"Ġ513":7725,"Ġ540":7726,"Ġ548":7727,"Ġ535":7728,"Ġ599":7729,"Ġ589":7730,"Ġ531":7731,"Ġ546":7732,"Ġ590":7733,"Ġ557":7734,"Ġ563":7735,"Ġ595":7736,"Ġ562":7737,"Ġ541":7738,"Ġ596":7739,"Ġ5119":7740,"Ġ5310":7741,"Ġ5312":7742,"Ġ5137":7743,"Ġ5249":7744,"Ġ5295":7745,"Ġ5268":7746,"Ġ5339":7747,"Ġ5485":7748,"Ġ5496":7749,"Ġ5680":7750,"Ġ5394":7751,"Ġ5452":7752,"Ġ5691":7753,"Ġ5342":7754,"Ġ5757":7755,"Ġ5503":7756,"Ġ5641":7757,"Ġ5004":7758,"Ġ5361":7759,"Ġ5986":7760,"lleders":7761,"ffe":7762,"ffene":7763,"ffisque":7764,"2024":7765,"2065":7766,"2031":7767,"2052":7768,"2091":7769,"ĠRoutede":7770,"2738":7771,"2770":7772,"2750":7773,"2797":7774,"2708":7775,"2771":7776,"ĠEtag":7777,"ĠEtape":7778,"ĠEtpd":7779,"2534":7780,"2591":7781,"25658":7782,"ardip":7783,"idia":7784,"idge":7785,"ĠCitec":7786,"ĠCitee":7787,"2926":7788,"2989":7789,"2932":7790,"2987":7791,"2816":7792,"2833":7793,"2862":7794,"2851":7795,"2892":7796,"2610":7797,"2628":7798,"2637":7799,"2690":7800,"2671":7801,"26754":7802,"ĠDuret":7803,"ĠDuvre":7804,"ĠLabo":7805,"ĠLaerap":7806,"3398":7807,"3395":7808,"3386":7809,"ĠOd":7810,"ĠOme":7811,"ĠOrab":7812,"ĠOgraphique":7813,"inea":7814,"inee":7815,"hes":7816,"levardou":7817,"Citee":7818,"2311":7819,"2361":7820,"ĠMarin":7821,"ĠMarice":7822,"ĠPole":7823,"ĠPoind":7824,"ĠFood":7825,"ĠUd":7826,"ĠUom":7827,"ĠUsa":7828,"ĠUvre":7829,"ĠUgb":7830,"ĠLibertes":7831,"itologie":7832,"itish":7833,"Ġ915":7834,"Ġ924":7835,"Ġ926":7836,"Ġ923":7837,"Ġ900":7838,"Ġ955":7839,"Ġ921":7840,"Ġ957":7841,"Ġ963":7842,"Ġ991":7843,"Ġ9320":7844,"Ġ9314":7845,"Ġ9255":7846,"Ġ9224":7847,"Ġ9226":7848,"Ġ9364":7849,"Ġ9405":7850,"Ġ9550":7851,"Ġ9794":7852,"Ġ9982":7853,"Ġ91410":7854,"Ġ99999":7855,"nelle":7856,"nest":7857,"ĠEntension":7858,"ĠEnvir":7859,"ĠGuedia":7860,"ĠJi":7861,"ĠJur":7862,"ĠJala":7863,"ĠJuma":7864,"ĠJardip":7865,"Ġ029":7866,"Ġ066":7867,"Ġ064":7868,"Ġ057":7869,"Ġ042":7870,"Ġ056":7871,"Ġ008":7872,"Ġ083":7873,"Ġ071":7874,"Ġ003":7875,"ross":7876,"Ġ1015":7877,"Ġ1017":7878,"Ġ1029":7879,"Ġ1023":7880,"Ġ1000":7881,"Ġ1040":7882,"Ġ1039":7883,"Ġ1037":7884,"Ġ1070":7885,"Ġ1089":7886,"Ġ1032":7887,"Ġ1062":7888,"Ġ1083":7889,"Ġ1093":7890,"Ġ10264":7891,"Ġ10558":7892,"Ġ10399":7893,"Ġ10656":7894,"Ġ10491":7895,"Ġ10551":7896,"Ġ10386":7897,"Ġ10584":7898,"iky":7899,"Ġ718":7900,"Ġ724":7901,"Ġ723":7902,"Ġ755":7903,"Ġ735":7904,"Ġ778":7905,"Ġ750":7906,"Ġ798":7907,"Ġ787":7908,"Ġ762":7909,"Ġ754":7910,"Ġ783":7911,"Ġ7279":7912,"Ġ7237":7913,"Ġ7602":7914,"Ġ7603":7915,"Ġ7484":7916,"Ġ7490":7917,"Ġ7359":7918,"Ġ7677":7919,"Ġ7709":7920,"Ġ7341":7921,"Ġ7084":7922,"iram":7923,"irot":7924,"irat":7925,"Ġ815":7926,"Ġ822":7927,"Ġ811":7928,"Ġ848":7929,"Ġ837":7930,"Ġ869":7931,"Ġ870":7932,"Ġ899":7933,"Ġ832":7934,"Ġ877":7935,"Ġ831":7936,"Ġ888":7937,"Ġ890":7938,"Ġ843":7939,"Ġ895":7940,"Ġ862":7941,"Ġ842":7942,"Ġ861":7943,"Ġ854":7944,"Ġ852":7945,"Ġ8170":7946,"Ġ8240":7947,"Ġ8214":7948,"Ġ8315":7949,"Ġ8324":7950,"Ġ8316":7951,"Ġ8298":7952,"Ġ8209":7953,"Ġ8305":7954,"Ġ8181":7955,"Ġ8459":7956,"Ġ8650":7957,"Ġ8399":7958,"Ġ8608":7959,"Ġ8395":7960,"Ġ8559":7961,"Ġ8781":7962,"Ġ8508":7963,"resse":7964,"gul":7965,"ĠAmi":7966,"ĠAmad":7967,"ĠAmina":7968,"ĠAsssainies":7969,"ĠAssinies":7970,"ĠAssaines":7971,"ura":7972,"cheur":7973,"chance":7974,"challah":7975,"ĠExtensions":7976,"ias":7977,"ĠRufisqueest":7978,"ĠTher":7979,"ĠThiou":7980,"ĠZc":7981,"ĠZon":7982,"ĠZinc":7983,"ĠZigu":7984,"ĠZakat":7985,"ainer":7986,"5521":7987,"4719":7988,"4753":7989,"4717961":7990,"ĠGrandes":7991,"6825":7992,"6800":7993,"6870":7994,"6856":7995,"4012":7996,"4015":7997,"4017":7998,"4024":7999,"4026":8000,"4058":8001,"4083":8002,"1112":8003,"1119":8004,"1111":8005,"4898":8006,"4804":8007,"3848":8008,"3821":8009,"ĠAncar":8010,"ĠAncin":8011,"ĠAnciens":8012,"3914":8013,"3966":8014,"6718":8015,"3736":8016,"4515":8017,"4540":8018,"ĠSicapliberte":8019,"iques":8020,"6015":8021,"6060":8022,"6907":8023,"tav":8024,"table":8025,"ĠMedoune":8026,"ĠMediat":8027,"ĠMedecin":8028,"ĠBourgu":8029,"ĠSoeur":8030,"ĠSogui":8031,"ĠSobo":8032,"ĠSomet":8033,"ĠSosepi":8034,"ĠLex":8035,"ĠLeglise":8036,"ĠNgoroasis":8037,"ĠNdack":8038,"ĠNdeng":8039,"ĠNdaw":8040,"ĠNdangane":8041,"ĠNdamat":8042,"ĠNdayane":8043,"ĠNdieguene":8044,"ĠOuestfoire":8045,"alling":8046,"7864":8047,"ords":8048,"asalam":8049,"asitologie":8050,"ndiane":8051,"8567":8052,"8501":8053,"7915":8054,"7998":8055,"3434":8056,"3436":8057,"oby":8058,"obap":8059,"7512":8060,"7513":8061,"7533":8062,"7544":8063,"7507":8064,"assere":8065,"2117":8066,"3610":8067,"3643":8068,"9927":8069,"9960":8070,"9985":8071,"9987":8072,"9994":8073,"ĠLama":8074,"ĠLambassade":8075,"ĠLamantin":8076,"4413":8077,"4426":8078,"6622":8079,"5082":8080,"ĠBissap":8081,"8939":8082,"ude":8083,"ĠUnice":8084,"3211":8085,"5960":8086,"5961":8087,"5973":8088,"7734":8089,"7736":8090,"mpoul":8091,"ĠIndep":8092,"ĠPecheur":8093,"ayemb":8094,"4620":8095,"ĠMbou":8096,"ĠMboul":8097,"ĠMbeukeu":8098,"ĠMbankh":8099,"ĠMboth":8100,"ĠDjara":8101,"ĠDjigo":8102,"ĠDjannah":8103,"ĠDjeed":8104,"ĠDjibril":8105,"ĠDjiky":8106,"ĠSyrie":8107,"ĠCheikhoul":8108,"ĠSawa":8109,"ĠSaver":8110,"ssemblee":8111,"8822":8112,"ĠRecherche":8113,"ĠRecrue":8114,"ĠReymonde":8115,"9044":8116,"9071":8117,"Ġ1568":8118,"Ġ1544":8119,"Ġ15131":8120,"Ġ15754":8121,"Ġ154717961":8122,"ĠPresse":8123,"ĠErnest":8124,"ĠXeatre":8125,"ĠBelgique":8126,"uneor":8127,"ĠStreet":8128,"6438":8129,"6437":8130,"berge":8131,"Ġ2017":8132,"Ġ2024":8133,"Ġ2057":8134,"Ġ2091":8135,"Ġ20796":8136,"ĠCargo":8137,"ĠCarbures":8138,"ĠCarrousse":8139,"ĠCarrousel":8140,"Ġ1119":8141,"Ġ11100":8142,"Ġ1411":8143,"Ġ1310":8144,"Ġ1312":8145,"Ġ1314":8146,"Ġ1322":8147,"Ġ1355":8148,"Ġ13158":8149,"Ġ13162":8150,"adette":8151,"ĠColonel":8152,"gha":8153,"ĠMos":8154,"ĠMosque":8155,"ĠDioubel":8156,"ĠDiouma":8157,"ĠDiourom":8158,"ĠDiounkh":8159,"9820":8160,"9865":8161,"9734":8162,"douman":8163,"ĠParouff":8164,"ĠParasitologie":8165,"ĠThiesouest":8166,"Boutique":8167,"4314":8168,"4324":8169,"4325":8170,"ĠSem":8171,"ĠSelle":8172,"ĠSega":8173,"ĠSegue":8174,"ĠSehran":8175,"ĠSendou":8176,"ĠAlu":8177,"ĠAlla":8178,"ĠAlhazar":8179,"Ġ1876":8180,"Ġ18254":8181,"9511":8182,"ĠJeff":8183,"ĠSalane":8184,"ĠSalve":8185,"ĠAblaye":8186,"ĠAbords":8187,"8766":8188,"ĠYs":8189,"ĠYann":8190,"ĠYeum":8191,"ĠYmca":8192,"ĠYukok":8193,"rahima":8194,"Ġ1710":8195,"Ġ1718":8196,"Ġ1719":8197,"Ġ1700":8198,"Ġ17000":8199,"Ġ17232":8200,"Ġ17491":8201,"Ġ17344":8202,"ĠMassour":8203,"ĠMassaer":8204,"igade":8205,"4210":8206,"ckhe":8207,"Ġ1613":8208,"Ġ1668":8209,"Ġ1639":8210,"Ġ1645":8211,"Ġ16106":8212,"Ġ16000":8213,"Ġ16174":8214,"Ġ16366":8215,"ĠEliz":8216,"ĠCambar":8217,"ĠCampement":8218,"ĠCaen":8219,"ĠCabou":8220,"ĠPeyrissac":8221,"ĠPeytav":8222,"usine":8223,"ĠKhand":8224,"ĠWill":8225,"ĠWolof":8226,"ĠWayemb":8227,"ĠSedard":8228,"ĠSedina":8229,"ĠProdu":8230,"ĠGess":8231,"ĠGeog":8232,"ĠGeoe":8233,"ĠGelato":8234,"Ġ3029":8235,"Ġ3011":8236,"Ġ3069":8237,"Ġ3070":8238,"Ġ3021":8239,"Ġ3099":8240,"Ġ3074":8241,"Ġ3086":8242,"Ġ3093":8243,"Centenaire":8244,"illipe":8245,"Ġ1916":8246,"Ġ1979":8247,"Ġ1934":8248,"Ġ1963":8249,"ivite":8250,"ives":8251,"ivites":8252,"ĠGalle":8253,"ĠGaladou":8254,"ĠGalgui":8255,"ĠGalande":8256,"ĠEco":8257,"ĠEcopole":8258,"ĠEcologique":8259,"Ġ407":8260,"Ġ4015":8261,"Ġ4027":8262,"Ġ4026":8263,"Ġ4045":8264,"Ġ4050":8265,"ĠEsvan":8266,"ĠDiamil":8267,"ĠDiamond":8268,"5433":8269,"9436":8270,"boot":8271,"ioce":8272,"khar":8273,"7311":8274,"ĠBuilder":8275,"ĠVincen":8276,"Ġ2515":8277,"Ġ2567":8278,"Ġ2577":8279,"Ġ2543":8280,"Ġ25111":8281,"7612":8282,"7639":8283,"ĠAzar":8284,"ĠAzhar":8285,"Ġ2930":8286,"Ġ2927":8287,"Ġ2923":8288,"Ġ2977":8289,"Ġ29602":8290,"Ġ29783":8291,"Ġ29462":8292,"7428":8293,"ĠArene":8294,"ĠArdo":8295,"ĠArchite":8296,"ĠGener":8297,"5116":8298,"ĠSerign":8299,"ĠSerhan":8300,"Ġ2630":8301,"Ġ2600":8302,"Ġ2635":8303,"Ġ2636":8304,"5328":8305,"ifort":8306,"8323":8307,"Ġ2428":8308,"Ġ2437":8309,"Ġ2466":8310,"10073":8311,"10051":8312,"10053":8313,"8624":8314,"8628":8315,"8668":8316,"8634":8317,"5214":8318,"9320":8319,"9648":8320,"ioun":8321,"Grandyoff":8322,"ĠNgnith":8323,"8412":8324,"8465":8325,"8466":8326,"Ġ2330":8327,"1402":8328,"fric":8329,"iguene":8330,"iguilen":8331,"1306":8332,"ung":8333,"unus":8334,"1903":8335,"ĠPresidentiel":8336,"ĠBrgm":8337,"ĠBrinoise":8338,"ĠBruges":8339,"ĠBridge":8340,"ĠBritish":8341,"ĠBrigade":8342,"1605":8343,"ĠLome":8344,"ĠLocean":8345,"ĠLoeuf":8346,"ĠLovoa":8347,"1701":8348,"17016":8349,"ĠKara":8350,"3006":8351,"ĠAdji":8352,"ĠAdanson":8353,"ĠAdresse":8354,"Ġ2716":8355,"Ġ2719":8356,"Ġ2727":8357,"Ġ2765":8358,"Ġ2778":8359,"Ġ2744":8360,"ĠRaf":8361,"ĠRaw":8362,"ĠRaan":8363,"8112":8364,"Ġ5063":8365,"Ġ5072":8366,"ĠSanagal":8367,"ĠSangalcam":8368,"oumadi":8369,"ieng":8370,"2007":8371,"20056":8372,"11061":8373,"linik":8374,"ĠMatern":8375,"ĠMayo":8376,"ĠMaiguilen":8377,"ĠMetres":8378,"ĠMetiers":8379,"ĠMeczy":8380,"1179":8381,"1129":8382,"1136":8383,"ĠSaran":8384,"ĠSarault":8385,"ĠAvs":8386,"11833":8387,"2401":8388,"2403":8389,"2409":8390,"2907":8391,"2206":8392,"2207":8393,"Ġ2810":8394,"Ġ2829":8395,"Ġ28103":8396,"1168":8397,"ĠNdiayes":8398,"ĠBatiments":8399,"ĠChance":8400,"ĠChasse":8401,"ĠChris":8402,"ĠChrist":8403,"ĠChildr":8404,"2183":8405,"2301":8406,"23018":8407,"Quatier":8408,"2108":8409,"21014":8410,"2174":8411,"3245":8412,"2805":8413,"2807":8414,"Ġ4522":8415,"Ġ45308":8416,"2339":8417,"hmiyou":8418,"ĠIscom":8419,"ĠNiagu":8420,"ĠNiomb":8421,"ĠNiague":8422,"ambar":8423,"ambour":8424,"ambara":8425,"ĠBirgo":8426,"ĠTheatre":8427,"ĠLiberta":8428,"ĠDaroukh":8429,"Ġ3348":8430,"15575":8431,"10566":8432,"ctive":8433,"ĠGomba":8434,"ĠFaty":8435,"ĠFatima":8436,"ĠFatma":8437,"Guet":8438,"vegard":8439,"14542":8440,"ĠGoudir":8441,"12513":8442,"12500":8443,"Ġ3828":8444,"ĠHotels":8445,"10420":8446,"10421":8447,"18524":8448,"ĠRok":8449,"ĠTem":8450,"ĠTele":8451,"ĠTeze":8452,"16970":8453,"Ġ609":8454,"Ġ705":8455,"Ġ709":8456,"ĠMagino":8457,"ĠMagaz":8458,"22800":8459,"33864":8460,"ĠBlue":8461,"ĠFada":8462,"ĠHund":8463,"14711":8464,"23742":8465,"ĠBarack":8466,"ĠBaraka":8467,"ĠBarka":8468,"ĠBaralait":8469,"ĠVictoire":8470,"ĠKebab":8471,"Thioce":8472,"ĠCasah":8473,"ĠCasiono":8474,"Ġ4469":8475,"ĠLayal":8476,"ĠLayenn":8477,"ĠAhmed":8478,"Ġ10078":8479,"Ġ10036":8480,"Ġ10057":8481,"ĠGroup":8482,"autaire":8483,"25615":8484,"ĠDkrrp":8485,"afin":8486,"ĠRoutier":8487,"ĠLibre":8488,"ĠLibass":8489,"oulick":8490,"ĠGuenth":8491,"ĠGuinee":8492,"Ġ5410":8493,"Ġ5426":8494,"Ġ5411":8495,"Ġ4720":8496,"Ġ47200":8497,"Ġ47155":8498,"Ġ5615":8499,"ĠInfe":8500,"ĠInspection":8501,"ĠInteg":8502,"Diamnadio":8503,"Ambassade":8504,"ĠJeune":8505,"Ġ8625":8506,"Ġ8634":8507,"ĠMartyr":8508,"Camber":8509,"dress":8510,"Ġ6568":8511,"ĠDavis":8512,"ĠDaffaires":8513,"ĠDaffe":8514,"ĠPerfe":8515,"ĠDouble":8516,"ĠDouala":8517,"ĠBaol":8518,"ĠBaida":8519,"ĠBaobap":8520,"Ġ1858":8521,"Ġ18521":8522,"Ġ6655":8523,"Centrale":8524,"ĠBest":8525,"ĠBeaux":8526,"ĠAssea":8527,"ĠAssemb":8528,"ĠAssemble":8529,"ĠPethio":8530,"ĠDalifortfo":8531,"ĠNimzat":8532,"ĠEmg":8533,"ĠEmbass":8534,"ĠEmase":8535,"Ġ9927":8536,"Ġ9934":8537,"Caisse":8538,"ĠNoflaye":8539,"ĠNoirot":8540,"Ġ904":8541,"Ġ906":8542,"Ġ909":8543,"Ġ9024":8544,"drome":8545,"drobase":8546,"Ġ8412":8547,"Ġ8400":8548,"Ġ8448":8549,"Ġ802":8550,"Ġ805":8551,"Ġ806":8552,"Ġ8067":8553,"ĠCalao":8554,"ĠCalmet":8555,"Ġ9742":8556,"Ġ7730":8557,"Ġ7745":8558,"Ġ7760":8559,"Ġ7736":8560,"ĠJoe":8561,"ĠJokk":8562,"ĠSoume":8563,"ĠSouley":8564,"Ġ9615":8565,"coeur":8566,"ĠLys":8567,"ĠPrades":8568,"ĠIbadou":8569,"velier":8570,"ĠCollective":8571,"ĠDiorga":8572,"Ġ8585":8573,"Ġ8599":8574,"ĠManchallah":8575,"ĠAdministration":8576,"ĠBureaux":8577,"ĠKah":8578,"ĠKaira":8579,"ĠKaolo":8580,"ĠRosegard":8581,"Ġ10420":8582,"Ġ10421":8583,"Ġ10728":8584,"ondelles":8585,"ĠMonaco":8586,"ĠHacynt":8587,"ĠHachmiyou":8588,"ĠBoulvard":8589,"Tout":8590,"ĠBois":8591,"ĠBode":8592,"ĠBoyer":8593,"ĠBody":8594,"ĠBodian":8595,"ĠBosco":8596,"ĠTotale":8597,"Ġ7648":8598,"Ġ7639":8599,"Ġ7636":8600,"Ġ8938":8601,"Ġ8960":8602,"Ġ9460":8603,"ĠPhc":8604,"ĠPhys":8605,"ĠPhillipe":8606,"Ġ9867":8607,"Ġ7460":8608,"Ġ8769":8609,"Ġ8775":8610,"Ġ8763":8611,"vision":8612,"anke":8613,"Ġ12522":8614,"Ġ12524":8615,"ternite":8616,"Ġ11563":8617,"Ġ6935":8618,"ĠOlympic":8619,"Ġ9568":8620,"Ġ10560":8621,"Ġ10562":8622,"ĠScac":8623,"ĠScorp":8624,"ĠCasebi":8625,"ĠQt":8626,"ĠCennt":8627,"ĠFerand":8628,"ĠFerree":8629,"Ġ1457":8630,"ĠVerger":8631,"ĠImmeule":8632,"ĠYallah":8633,"ĠAfricatel":8634,"Mback":8635,"Mboro":8636,"ĠAttaya":8637,"ĠAinoumane":8638,"Ġ8877":8639,"ĠAdministrative":8640,"ĠDemoby":8641,"ĠFayal":8642,"athie":8643,"ĠLatifa":8644,"ĠMinam":8645,"ĠMiniere":8646,"ĠMinutes":8647,"Ġ10623":8648,"Ġ10600":8649,"Ġ10814":8650,"Ġ10817":8651,"ĠElyse":8652,"ĠBulleders":8653,"ĠMarius":8654,"ĠAlliance":8655,"ĠElectrique":8656,"Podor":8657,"Presquile":8658,"ĠTechnologie":8659,"ĠPyrutechn":8660,"vail":8661,"ylor":8662,"ĠSkate":8663,"ĠTerminal":8664,"ĠNdiambour":8665,"ĠMazars":8666,"ĠPalmer":8667,"ĠThiandoume":8668,"ĠNema":8669,"ounka":8670,"ĠAbdourahmane":8671,"olabs":8672,"ĠRankhar":8673,"ĠLssenghor":8674,"lamine":8675,"ĠTamaris":8676,"ĠEnseignant":8677,"ĠCdao":8678,"ĠMontreuil":8679,"ĠOuagouniaye":8680,"ĠRanrar":8681,"ĠAcade":8682,"ĠTourisme":8683,"ĠKhaiser":8684,"ĠDavignon":8685,"avouane":8686,"culaire":8687,"ĠDarour":8688,"ĠForces":8689,"ĠValdio":8690,"ĠPostchance":8691,"Ġ12345":8692,"ĠOrbus":8693,"ĠMamoulick":8694,"Ġ11436":8695,"ĠGontan":8696,"ĠLahi":8697,"Bureaux":8698,"ĠPeulgha":8699,"Ġ22266":8700,"Ġ22277":8701,"Ġ22252":8702,"zzerade":8703,"ĠJavelier":8704,"ĠNdeugane":8705,"Entrepot":8706,"Ġ11615":8707,"Ġ11693":8708,"ĠDiambar":8709,"ĠAfricain":8710,"ĠSidf":8711,"ĠSidy":8712,"ĠBambou":8713,"ĠCooperation":8714,"ĠSodid":8715,"ĠCommunue":8716,"ĠCommunautaire":8717,"ĠSafari":8718,"Cabrousse":8719,"ĠPatios":8720,"ĠPatisen":8721,"Ġ16800":8722,"Ġ16861":8723,"ĠBagore":8724,"ĠBassiro":8725,"ĠNdiouga":8726,"Ġ20745":8727,"ĠElhadj":8728,"ĠLaprine":8729,"ĠCfpt":8730,"ĠMadrague":8731,"ĠMadieng":8732,"ĠLazard":8733,"ĠEden":8734,"ĠPotin":8735,"ĠKereto":8736,"ĠKenny":8737,"ĠNaby":8738,"ĠPedest":8739,"Ġ14947":8740,"Ġ21926":8741,"Ġ24508":8742,"Ġ30034":8743,"ĠCheickh":8744,"ĠMbodiene":8745,"ĠMaguilen":8746,"Chu":8747,"Chras":8748,"ĠQuat":8749,"ĠQuatier":8750,"ĠScientif":8751,"ĠLancienne":8752,"ĠLancien":8753,"ĠMoris":8754,"ĠMorcelle":8755,"Ġ18010":8756,"Ġ25582":8757,"ĠPolytechnique":8758,"ĠAdministraion":8759,"Aroport":8760,"Arret":8761,"Guentaba":8762,"Ndal":8763,"Ndio":8764,"Ndorong":8765,"Niacoul":8766,"ĠDaloua":8767,"ĠSdm":8768,"ĠSdar":8769,"ĠSony":8770,"ĠSonadis":8771,"ĠNave":8772,"ĠCora":8773,"ĠCorps":8774,"ĠCivil":8775,"ĠMandione":8776,"ĠMutuelle":8777,"ĠPnal":8778,"ĠPneu":8779,"Ġ29015":8780,"Ġ28414":8781,"ĠMarname":8782,"Sebikhotane":8783,"ĠMessagerie":8784,"rises":8785,"ĠAhad":8786,"ĠAhzar":8787,"ĠAkf":8788,"ĠAkus":8789,"ĠCharite":8790,"ĠEssence":8791,"ĠMilan":8792,"Ġ11900":8793,"Ġ21784":8794,"Ġ23400":8795,"imatou":8796,"ĠSuperieur":8797,"Djiddah":8798,"ĠAerodrome":8799,"ĠCrois":8800,"ĠPlane":8801,"ĠPelican":8802,"ĠFalou":8803,"Ġ24016":8804,"ĠImodsen":8805,"Ġ33000":8806,"ĠHouse":8807,"ĠAmazoute":8808,"ĠAmazouth":8809,"ĠZein":8810,"ĠPromotion":8811,"ĠInterne":8812,"ĠInterim":8813,"ĠPolyclinik":8814,"ĠChercheurs":8815,"ĠFeue":8816,"Ġ28063":8817,"ĠKoweit":8818,"ĠOpce":8819,"ĠOpold":8820,"ĠEnds":8821,"ĠNdingala":8822,"ĠNdiassane":8823,"ĠNdiayenne":8824,"ĠNdiare":8825,"ĠSaveurs":8826,"ĠFronte":8827,"ĠFrontiere":8828,"ĠAboulevardou":8829,"ĠWarang":8830,"ĠXcfra":8831,"ĠDepartemental":8832,"Bambylor":8833,"ĠDeriere":8834,"ĠAlmin":8835,"ĠAlmah":8836,"ĠAlmenko":8837,"ĠReubess":8838,"ĠContainer":8839,"ĠCoulang":8840,"ĠLagune":8841,"ĠEquipe":8842,"ĠMausole":8843,"ĠPied":8844,"ĠGsh":8845,"Ġ32600":8846,"ĠTravail":8847,"ĠDiakhao":8848,"ĠFerdinant":8849,"ĠImmobilier":8850,"Maison":8851,"Mbod":8852,"Ndiaye":8853,"Petersen":8854,"Peytavin":8855,"ĠScolaire":8856,"ĠNsia":8857,"ĠAthie":8858,"ĠAthena":8859,"ĠAynina":8860,"ĠAynoumadi":8861,"ĠCeramique":8862,"ĠEmbrun":8863,"ĠBilingue":8864,"Ġ29719":8865,"ĠXblaise":8866,"ĠComptes":8867,"ĠComptable":8868,"ĠMarises":8869,"ĠRegala":8870,"ĠMountaga":8871,"ĠDioulikaye":8872,"ĠProfessionnel":8873,"ĠNguekokh":8874,"ĠEntrepots":8875,"ĠEntreprises":8876,"ĠVerdure":8877,"ĠLyonnaise":8878,"Apres":8879,"Apix":8880,"Nimzatt":8881,"ĠSauvegard":8882,"ĠSols":8883,"ĠSimal":8884,"ĠNeurologie":8885,"ĠNeuroch":8886,"ĠNephrologie":8887,"ĠAteliers":8888,"ĠAigle":8889,"ĠCouleur":8890,"ĠLarsenal":8891,"ĠMacina":8892,"ĠDecent":8893,"ĠBakhdad":8894,"ĠVivier":8895,"ĠViviers":8896,"onnement":8897,"ĠGaspar":8898,"Ġ52024":8899,"ĠDunya":8900,"ĠYembeul":8901,"ĠEconomique":8902,"ĠNgoudouman":8903,"ĠBernadette":8904,"ĠPedagogues":8905,"ĠResidentielle":8906,"ĠFemme":8907,"ĠMaunory":8908,"Khouma":8909,"Khourounar":8910,"Niani":8911,"Nianing":8912,"Ourossogui":8913,"Suite":8914,"ĠDicopa":8915,"enciel":8916,"ĠSibeau":8917,"ĠSangomar":8918,"ĠSakho":8919,"ĠSakhir":8920,"ĠSportif":8921,"ĠNtle":8922,"ĠNatangue":8923,"ĠNguith":8924,"ĠNguinth":8925,"ĠApec":8926,"ĠApexi":8927,"ĠActivites":8928,"ĠRuffisque":8929,"ĠLittle":8930,"ĠLittor":8931,"ĠMusee":8932,"ĠPermanence":8933,"ĠBandy":8934,"ĠBrazza":8935,"ĠBrazzerade":8936,"ĠTanne":8937,"ĠTabara":8938,"Ġ45740":8939,"ĠBoubes":8940,"ĠBoubakh":8941,"inthia":8942,"ĠFoiren":8943,"ĠNdoukhoura":8944,"ĠSablux":8945,"ĠRegina":8946,"ĠPresidend":8947,"ĠPresidenciel":8948,"ĠCayre":8949,"ĠCayor":8950,"ĠWalkway":8951,"ĠWassya":8952,"ĠEspoir":8953,"ĠLogistique":8954,"ĠLogiciel":8955,"Amiti":8956,"ĠEmergence":8957,"ĠEmeraude":8958,"ĠThiokho":8959,"ĠTransfret":8960,"ĠPyrothechnie":8961,"ĠPyrothechnique":8962,"Bccd":8963,"Cftp":8964,"Chambre":8965,"Meridien":8966,"Taiba":8967,"Villan":8968,"sdalifa":8969,"Ġcp":8970,"ĠDlily":8971,"ĠAeroprt":8972,"ĠLieudit":8973,"ĠMakk":8974,"ĠFourma":8975,"ĠBadara":8976,"ĠBobba":8977,"ĠBerranger":8978,"ĠBaudin":8979,"ĠVirmaud":8980,"Ġ28560":8981,"Ġ35330":8982,"ĠTivavouane":8983,"ĠTunis":8984,"ĠCophes":8985,"ĠDiatta":8986,"ĠDiongarane":8987,"ĠHonore":8988,"ĠKorentas":8989,"ĠKheweul":8990,"ĠEnsup":8991,"ĠJamm":8992,"ĠAssanies":8993,"ĠNdoffene":8994,"ĠPyrotecnie":8995,"ĠPyrotechniq":8996,"ĠDjoudj":8997,"ĠDjidah":8998,"ĠSynapse":8999,"ĠPeycouck":9000,"ĠCapitaine":9001,"ĠLodge":9002,"ĠMaternelle":9003,"ĠBijouterie":9004,"Sodidat":9005,"ĠCardiovas":9006,"ĠInformat":9007,"ĠSamsung":9008,"ĠSucc":9009,"ĠConsult":9010,"ĠAelmos":9011,"ĠMinisterielles":9012,"Seydina":9013,"ĠAscena":9014,"ĠCotonou":9015,"ĠOperations":9016,"ĠXcfnoumane":9017,"ĠTraitement":9018,"ĠKayraba":9019,"ĠNeptunus":9020,"Hamdallaye":9021,"Palmarin":9022,"ĠMohammedia":9023,"Technopole":9024,"Baches":9025,"Cerf":9026,"Dallifort":9027,"Dougar":9028,"Etoile":9029,"Faculte":9030,"Garage":9031,"Hydrobase":9032,"Magasin":9033,"Olympique":9034,"Soprime":9035,"Synapse":9036,"Trypano":9037,"Warang":9038,"fili":9039,"ĠDibiterie":9040,"ĠDasie":9041,"ĠDynamique":9042,"enious":9043,"ĠSagam":9044,"ĠSesam":9045,"ĠSikilo":9046,"ĠSatrec":9047,"ĠNgelaw":9048,"ĠNawim":9049,"ĠAcep":9050,"ĠAmeth":9051,"ĠAlamdies":9052,"ĠRonkh":9053,"ĠRolland":9054,"ĠRusty":9055,"ĠRadiologie":9056,"ĠCantara":9057,"ĠLierte":9058,"ĠLubke":9059,"ĠLunite":9060,"ĠEnea":9061,"ĠMoneger":9062,"ĠMadyana":9063,"ĠPonit":9064,"ĠPordudal":9065,"ĠPirogues":9066,"ĠPoupette":9067,"ĠDeterre":9068,"ĠFilfili":9069,"ĠFoutiyou":9070,"ĠFalaise":9071,"ĠBineta":9072,"ĠBresil":9073,"ĠBolong":9074,"ĠBitume":9075,"ĠVitalait":9076,"ĠGional":9077,"ĠGarden":9078,"ĠGermain":9079,"ĠGiraud":9080,"ĠGereca":9081,"ĠGarmy":9082,"ĠGawlo":9083,"ĠGollieni":9084,"ĠXavier":9085,"ĠTacko":9086,"ĠTodd":9087,"ĠFastef":9088,"ĠDiameguene":9089,"ĠDiangne":9090,"ĠDiaguily":9091,"ĠHirondelles":9092,"ĠHorticulture":9093,"ĠHoballah":9094,"ĠHernest":9095,"ĠHampate":9096,"ĠHeinrich":9097,"ĠBoughiba":9098,"ĠBoudiouck":9099,"ĠKusum":9100,"ĠKathior":9101,"ĠLaborex":9102,"ĠLaeraport":9103,"ĠOmega":9104,"ĠOrabank":9105,"ĠUsaid":9106,"ĠEnvironnement":9107,"ĠJalabert":9108,"ĠMediature":9109,"ĠSoboa":9110,"ĠSometra":9111,"ĠNdamatou":9112,"asserelle":9113,"ĠUnicef":9114,"ĠMbeukeunda":9115,"ĠMbankheude":9116,"ĠDjaraff":9117,"ĠDjeedah":9118,"ĠCarroussel":9119,"ĠParouffel":9120,"ĠSeguele":9121,"ĠYukokai":9122,"ĠElizabeth":9123,"ĠCambarene":9124,"ĠWilliam":9125,"ĠGeoeges":9126,"ĠArchitecture":9127,"ĠChrista":9128,"ĠChristopher":9129,"ĠChildren":9130,"ĠGoudiry":9131,"ĠMagazin":9132,"ĠCasahous":9133,"ĠLayennen":9134,"ĠInfect":9135,"ĠDalifortfoirail":9136,"ĠEmases":9137,"ĠJokkolabs":9138,"ĠSouleymane":9139,"ĠKaoloack":9140,"ĠRosegarden":9141,"ĠHacynthe":9142,"ĠPhysiologie":9143,"ĠScorpion":9144,"ĠCenntenaire":9145,"ĠPyrutechnie":9146,"ĠValdiodio":9147,"ĠPedestrian":9148,"Chrasm":9149,"ĠScientifique":9150,"ĠMorcellement":9151,"ĠMausolee":9152,"ĠSauvegarde":9153,"ĠNeurochirurgie":9154,"ĠLogiciels":9155,"ĠCardiovasculaire":9156}